{
  "version": "1.0",
  "truncation": null,
  "padding": null,
  "added_tokens": [
    {
      "id": 0,
      "special": true,
      "content": "[PAD]",
      "single_word": false,
      "lstrip": false,
      "rstrip": false,
      "normalized": false
    },
    {
      "id": 1,
      "special": true,
      "content": "[UNK]",
      "single_word": false,
      "lstrip": false,
      "rstrip": false,
      "normalized": false
    },
    {
      "id": 2,
      "special": true,
      "content": "[CLS]",
      "single_word": false,
      "lstrip": false,
      "rstrip": false,
      "normalized": false
    },
    {
      "id": 3,
      "special": true,
      "content": "[SEP]",
      "single_word": false,
      "lstrip": false,
      "rstrip": false,
      "normalized": false
    },
    {
      "id": 4,
      "special": true,
      "content": "[MASK]",
      "single_word": false,
      "lstrip": false,
      "rstrip": false,
      "normalized": false
    }
  ],
  "normalizer": {
    "type": "Sequence",
    "normalizers": [
      {
        "type": "Lowercase"
      },
      {
        "type": "NFKD"
      },
      {
        "type": "StripAccents"
      }
    ]
  },
  "pre_tokenizer": {
    "type": "Sequence",
    "pretokenizers": [
      {
        "type": "Whitespace"
      },
      {
        "type": "Digits",
        "individual_digits": false
      }
    ]
  },
  "post_processor": null,
  "decoder": null,
  "model": {
    "type": "WordPiece",
    "unk_token": "[UNK]",
    "continuing_subword_prefix": "##",
    "max_input_chars_per_word": 100,
    "vocab": {
      "[PAD]": 0,
      "[UNK]": 1,
      "[CLS]": 2,
      "[SEP]": 3,
      "[MASK]": 4,
      "!": 5,
      "\"": 6,
      "#": 7,
      "$": 8,
      "%": 9,
      "&": 10,
      "'": 11,
      "(": 12,
      ")": 13,
      "*": 14,
      "+": 15,
      ",": 16,
      "-": 17,
      ".": 18,
      "/": 19,
      "0": 20,
      "1": 21,
      "2": 22,
      "3": 23,
      "4": 24,
      "5": 25,
      "6": 26,
      "7": 27,
      "8": 28,
      "9": 29,
      ":": 30,
      ";": 31,
      "<": 32,
      "=": 33,
      ">": 34,
      "?": 35,
      "@": 36,
      "[": 37,
      "\\": 38,
      "]": 39,
      "^": 40,
      "_": 41,
      "`": 42,
      "a": 43,
      "b": 44,
      "c": 45,
      "d": 46,
      "e": 47,
      "f": 48,
      "g": 49,
      "h": 50,
      "i": 51,
      "j": 52,
      "k": 53,
      "l": 54,
      "m": 55,
      "n": 56,
      "o": 57,
      "p": 58,
      "q": 59,
      "r": 60,
      "s": 61,
      "t": 62,
      "u": 63,
      "v": 64,
      "w": 65,
      "x": 66,
      "y": 67,
      "z": 68,
      "{": 69,
      "|": 70,
      "}": 71,
      "~": 72,
      "\u00a1": 73,
      "\u00a2": 74,
      "\u00a3": 75,
      "\u00a4": 76,
      "\u00a5": 77,
      "\u00a6": 78,
      "\u00a7": 79,
      "\u00a8": 80,
      "\u00a9": 81,
      "\u00aa": 82,
      "\u00ab": 83,
      "\u00ac": 84,
      "\u00ae": 85,
      "\u00af": 86,
      "\u00b0": 87,
      "\u00b1": 88,
      "\u00b2": 89,
      "\u00b3": 90,
      "\u00b4": 91,
      "\u00b5": 92,
      "\u00b6": 93,
      "\u00b7": 94,
      "\u00b8": 95,
      "\u00b9": 96,
      "\u00ba": 97,
      "\u00bb": 98,
      "\u00bc": 99,
      "\u00bd": 100,
      "\u00be": 101,
      "\u00bf": 102,
      "\u00d7": 103,
      "\u00df": 104,
      "\u00e6": 105,
      "\u00f0": 106,
      "\u00f7": 107,
      "\u00f8": 108,
      "\u00fe": 109,
      "\u0111": 110,
      "\u0127": 111,
      "\u0131": 112,
      "\u0138": 113,
      "\u0142": 114,
      "\u014b": 115,
      "\u0153": 116,
      "\u0185": 117,
      "\u018d": 118,
      "\u0192": 119,
      "\u0199": 120,
      "\u019b": 121,
      "\u019e": 122,
      "\u01ad": 123,
      "\u01b4": 124,
      "\u01b6": 125,
      "\u01bf": 126,
      "\u01c0": 127,
      "\u01c1": 128,
      "\u01c2": 129,
      "\u01dd": 130,
      "\u0223": 131,
      "\u0225": 132,
      "\u0235": 133,
      "\u023c": 134,
      "\u0242": 135,
      "\u0250": 136,
      "\u0251": 137,
      "\u0252": 138,
      "\u0253": 139,
      "\u0254": 140,
      "\u0255": 141,
      "\u0256": 142,
      "\u0257": 143,
      "\u0259": 144,
      "\u025a": 145,
      "\u025b": 146,
      "\u025c": 147,
      "\u025d": 148,
      "\u0261": 149,
      "\u0263": 150,
      "\u0264": 151,
      "\u0265": 152,
      "\u0266": 153,
      "\u0268": 154,
      "\u0269": 155,
      "\u026a": 156,
      "\u026c": 157,
      "\u026d": 158,
      "\u026e": 159,
      "\u026f": 160,
      "\u0271": 161,
      "\u0272": 162,
      "\u0273": 163,
      "\u0275": 164,
      "\u0276": 165,
      "\u0277": 166,
      "\u0278": 167,
      "\u0279": 168,
      "\u027b": 169,
      "\u027e": 170,
      "\u027f": 171,
      "\u0280": 172,
      "\u0281": 173,
      "\u0282": 174,
      "\u0283": 175,
      "\u0285": 176,
      "\u0288": 177,
      "\u0289": 178,
      "\u028a": 179,
      "\u028b": 180,
      "\u028c": 181,
      "\u028e": 182,
      "\u028f": 183,
      "\u0290": 184,
      "\u0291": 185,
      "\u0292": 186,
      "\u0294": 187,
      "\u0295": 188,
      "\u0298": 189,
      "\u029d": 190,
      "\u029f": 191,
      "\u02a6": 192,
      "\u02a7": 193,
      "\u02b0": 194,
      "\u02b1": 195,
      "\u02b2": 196,
      "\u02b7": 197,
      "\u02b9": 198,
      "\u02ba": 199,
      "\u02bc": 200,
      "\u02c2": 201,
      "\u02c3": 202,
      "\u02c4": 203,
      "\u02c6": 204,
      "\u02c7": 205,
      "\u02c9": 206,
      "\u02d0": 207,
      "\u02d1": 208,
      "\u02d8": 209,
      "\u02d9": 210,
      "\u02da": 211,
      "\u02dc": 212,
      "\u02dd": 213,
      "\u02de": 214,
      "\u02df": 215,
      "\u02e0": 216,
      "\u02e4": 217,
      "\u02ea": 218,
      "\u02ed": 219,
      "\u02ee": 220,
      "\u02f4": 221,
      "\u0373": 222,
      "\u037b": 223,
      "\u0380": 224,
      "\u0381": 225,
      "\u0383": 226,
      "\u0384": 227,
      "\u038d": 228,
      "\u03b1": 229,
      "\u03b2": 230,
      "\u03b3": 231,
      "\u03b4": 232,
      "\u03b5": 233,
      "\u03b6": 234,
      "\u03b7": 235,
      "\u03b8": 236,
      "\u03b9": 237,
      "\u03ba": 238,
      "\u03bb": 239,
      "\u03bc": 240,
      "\u03bd": 241,
      "\u03be": 242,
      "\u03bf": 243,
      "\u03c0": 244,
      "\u03c1": 245,
      "\u03c2": 246,
      "\u03c3": 247,
      "\u03c4": 248,
      "\u03c5": 249,
      "\u03c6": 250,
      "\u03c7": 251,
      "\u03c8": 252,
      "\u03c9": 253,
      "\u03d0": 254,
      "\u03d1": 255,
      "\u03d2": 256,
      "\u03d5": 257,
      "\u03d6": 258,
      "\u03dd": 259,
      "\u03e1": 260,
      "\u03eb": 261,
      "\u03ed": 262,
      "\u03f0": 263,
      "\u03f1": 264,
      "\u03f2": 265,
      "\u03f5": 266,
      "\u03fc": 267,
      "\u0430": 268,
      "\u0431": 269,
      "\u0432": 270,
      "\u0433": 271,
      "\u0434": 272,
      "\u0435": 273,
      "\u0436": 274,
      "\u0437": 275,
      "\u0438": 276,
      "\u043a": 277,
      "\u043b": 278,
      "\u043c": 279,
      "\u043d": 280,
      "\u043e": 281,
      "\u043f": 282,
      "\u0440": 283,
      "\u0441": 284,
      "\u0442": 285,
      "\u0443": 286,
      "\u0444": 287,
      "\u0445": 288,
      "\u0446": 289,
      "\u0447": 290,
      "\u0448": 291,
      "\u0449": 292,
      "\u044c": 293,
      "\u044d": 294,
      "\u044e": 295,
      "\u044f": 296,
      "\u0454": 297,
      "\u0455": 298,
      "\u0456": 299,
      "\u0458": 300,
      "\u045b": 301,
      "\u0471": 302,
      "\u0473": 303,
      "\u0475": 304,
      "\u0491": 305,
      "\u049b": 306,
      "\u049d": 307,
      "\u04a1": 308,
      "\u04ab": 309,
      "\u04af": 310,
      "\u04b1": 311,
      "\u04b3": 312,
      "\u04bb": 313,
      "\u04cf": 314,
      "\u04d5": 315,
      "\u04d9": 316,
      "\u04e9": 317,
      "\u04fd": 318,
      "\u050f": 319,
      "\u0511": 320,
      "\u0583": 321,
      "\u0585": 322,
      "\u05be": 323,
      "\u05c0": 324,
      "\u05d0": 325,
      "\u05d1": 326,
      "\u05d9": 327,
      "\u05e5": 328,
      "\u05e9": 329,
      "\u05f3": 330,
      "\u060c": 331,
      "\u0627": 332,
      "\u062a": 333,
      "\u062f": 334,
      "\u0631": 335,
      "\u0639": 336,
      "\u0640": 337,
      "\u0641": 338,
      "\u0644": 339,
      "\u0648": 340,
      "\u0660": 341,
      "\u0661": 342,
      "\u0662": 343,
      "\u0663": 344,
      "\u0664": 345,
      "\u0665": 346,
      "\u0667": 347,
      "\u0668": 348,
      "\u0669": 349,
      "\u066a": 350,
      "\u066c": 351,
      "\u066d": 352,
      "\u07da": 353,
      "\u07dd": 354,
      "\u0869": 355,
      "\u08c8": 356,
      "\u0903": 357,
      "\u0915": 358,
      "\u091a": 359,
      "\u0923": 360,
      "\u092b": 361,
      "\u0930": 362,
      "\u0932": 363,
      "\u0939": 364,
      "\u093e": 365,
      "\u093f": 366,
      "\u0966": 367,
      "\u0e01": 368,
      "\u0e02": 369,
      "\u0e07": 370,
      "\u0e15": 371,
      "\u0e17": 372,
      "\u0e18": 373,
      "\u0e19": 374,
      "\u0e1a": 375,
      "\u0e1b": 376,
      "\u0e1d": 377,
      "\u0e1e": 378,
      "\u0e1f": 379,
      "\u0e20": 380,
      "\u0e22": 381,
      "\u0e23": 382,
      "\u0e25": 383,
      "\u0e27": 384,
      "\u0e28": 385,
      "\u0e2b": 386,
      "\u0e2d": 387,
      "\u0e30": 388,
      "\u0e32": 389,
      "\u0e3f": 390,
      "\u0e40": 391,
      "\u0e41": 392,
      "\u0e43": 393,
      "\u0e44": 394,
      "\u0f0c": 395,
      "\u1001": 396,
      "\u1100": 397,
      "\u1101": 398,
      "\u1102": 399,
      "\u1103": 400,
      "\u1104": 401,
      "\u1105": 402,
      "\u1106": 403,
      "\u1107": 404,
      "\u1108": 405,
      "\u1109": 406,
      "\u110b": 407,
      "\u110c": 408,
      "\u110e": 409,
      "\u110f": 410,
      "\u1110": 411,
      "\u1111": 412,
      "\u1112": 413,
      "\u115f": 414,
      "\u1161": 415,
      "\u1162": 416,
      "\u1165": 417,
      "\u1166": 418,
      "\u1167": 419,
      "\u1168": 420,
      "\u1169": 421,
      "\u116a": 422,
      "\u116c": 423,
      "\u116d": 424,
      "\u116e": 425,
      "\u116f": 426,
      "\u1170": 427,
      "\u1171": 428,
      "\u1172": 429,
      "\u1173": 430,
      "\u1174": 431,
      "\u1175": 432,
      "\u11a8": 433,
      "\u11a9": 434,
      "\u11aa": 435,
      "\u11ab": 436,
      "\u11ad": 437,
      "\u11af": 438,
      "\u11b7": 439,
      "\u11b8": 440,
      "\u11ba": 441,
      "\u11bb": 442,
      "\u11bc": 443,
      "\u11be": 444,
      "\u11c2": 445,
      "\u11de": 446,
      "\u1403": 447,
      "\u16eb": 448,
      "\u1d02": 449,
      "\u1d05": 450,
      "\u1d0b": 451,
      "\u1d0f": 452,
      "\u1d10": 453,
      "\u1d13": 454,
      "\u1d28": 455,
      "\u1d2a": 456,
      "\u1d33": 457,
      "\u1d35": 458,
      "\u1d37": 459,
      "\u1d3a": 460,
      "\u1d43": 461,
      "\u1d50": 462,
      "\u1d52": 463,
      "\u1d57": 464,
      "\u1d5d": 465,
      "\u1d5e": 466,
      "\u1d66": 467,
      "\u1d67": 468,
      "\u1d6a": 469,
      "\u1d76": 470,
      "\u1d79": 471,
      "\u1db2": 472,
      "\u1fbd": 473,
      "\u1fbf": 474,
      "\u1ffe": 475,
      "\u2010": 476,
      "\u2011": 477,
      "\u2012": 478,
      "\u2013": 479,
      "\u2014": 480,
      "\u2015": 481,
      "\u2016": 482,
      "\u2018": 483,
      "\u2019": 484,
      "\u201a": 485,
      "\u201b": 486,
      "\u201c": 487,
      "\u201d": 488,
      "\u201e": 489,
      "\u201f": 490,
      "\u2020": 491,
      "\u2021": 492,
      "\u2022": 493,
      "\u2025": 494,
      "\u2026": 495,
      "\u2027": 496,
      "\u2030": 497,
      "\u2031": 498,
      "\u2032": 499,
      "\u2033": 500,
      "\u2034": 501,
      "\u2039": 502,
      "\u203a": 503,
      "\u203b": 504,
      "\u203e": 505,
      "\u203f": 506,
      "\u2041": 507,
      "\u2043": 508,
      "\u2044": 509,
      "\u204e": 510,
      "\u2053": 511,
      "\u2057": 512,
      "\u2070": 513,
      "\u2071": 514,
      "\u2074": 515,
      "\u2075": 516,
      "\u2076": 517,
      "\u2077": 518,
      "\u2078": 519,
      "\u2079": 520,
      "\u207a": 521,
      "\u207b": 522,
      "\u207d": 523,
      "\u207e": 524,
      "\u207f": 525,
      "\u2080": 526,
      "\u2081": 527,
      "\u2082": 528,
      "\u2083": 529,
      "\u2084": 530,
      "\u2085": 531,
      "\u2086": 532,
      "\u2087": 533,
      "\u2088": 534,
      "\u2089": 535,
      "\u208b": 536,
      "\u208c": 537,
      "\u2093": 538,
      "\u20a3": 539,
      "\u20a4": 540,
      "\u20a6": 541,
      "\u20a9": 542,
      "\u20ac": 543,
      "\u20b1": 544,
      "\u20b3": 545,
      "\u20b5": 546,
      "\u20b9": 547,
      "\u20ba": 548,
      "\u2103": 549,
      "\u2105": 550,
      "\u2107": 551,
      "\u210b": 552,
      "\u210d": 553,
      "\u210f": 554,
      "\u2111": 555,
      "\u2112": 556,
      "\u2113": 557,
      "\u2115": 558,
      "\u2116": 559,
      "\u2117": 560,
      "\u2119": 561,
      "\u211b": 562,
      "\u211c": 563,
      "\u211d": 564,
      "\u211e": 565,
      "\u2120": 566,
      "\u2122": 567,
      "\u2124": 568,
      "\u2127": 569,
      "\u212c": 570,
      "\u212e": 571,
      "\u2130": 572,
      "\u2131": 573,
      "\u2133": 574,
      "\u2135": 575,
      "\u2145": 576,
      "\u2153": 577,
      "\u2154": 578,
      "\u2157": 579,
      "\u2158": 580,
      "\u2159": 581,
      "\u215a": 582,
      "\u215b": 583,
      "\u215c": 584,
      "\u2170": 585,
      "\u2171": 586,
      "\u2172": 587,
      "\u2173": 588,
      "\u2174": 589,
      "\u2175": 590,
      "\u2176": 591,
      "\u2177": 592,
      "\u2178": 593,
      "\u2179": 594,
      "\u217a": 595,
      "\u217b": 596,
      "\u2190": 597,
      "\u2191": 598,
      "\u2192": 599,
      "\u2193": 600,
      "\u2194": 601,
      "\u2195": 602,
      "\u2197": 603,
      "\u2198": 604,
      "\u2199": 605,
      "\u219d": 606,
      "\u21a6": 607,
      "\u21b7": 608,
      "\u21bc": 609,
      "\u21c0": 610,
      "\u21c4": 611,
      "\u21c5": 612,
      "\u21c6": 613,
      "\u21c7": 614,
      "\u21cb": 615,
      "\u21cc": 616,
      "\u21d0": 617,
      "\u21d1": 618,
      "\u21d2": 619,
      "\u21d3": 620,
      "\u21d4": 621,
      "\u21dd": 622,
      "\u21e8": 623,
      "\u2200": 624,
      "\u2202": 625,
      "\u2205": 626,
      "\u2206": 627,
      "\u2207": 628,
      "\u2208": 629,
      "\u220a": 630,
      "\u220b": 631,
      "\u220f": 632,
      "\u2210": 633,
      "\u2211": 634,
      "\u2212": 635,
      "\u2213": 636,
      "\u2215": 637,
      "\u2216": 638,
      "\u2217": 639,
      "\u2218": 640,
      "\u2219": 641,
      "\u221a": 642,
      "\u221b": 643,
      "\u221d": 644,
      "\u221e": 645,
      "\u221f": 646,
      "\u2220": 647,
      "\u2221": 648,
      "\u2222": 649,
      "\u2223": 650,
      "\u2225": 651,
      "\u2227": 652,
      "\u2228": 653,
      "\u2229": 654,
      "\u222a": 655,
      "\u222b": 656,
      "\u2234": 657,
      "\u2236": 658,
      "\u2237": 659,
      "\u2238": 660,
      "\u223c": 661,
      "\u223d": 662,
      "\u223e": 663,
      "\u2242": 664,
      "\u2243": 665,
      "\u2245": 666,
      "\u2248": 667,
      "\u224a": 668,
      "\u224c": 669,
      "\u224d": 670,
      "\u224f": 671,
      "\u2250": 672,
      "\u2251": 673,
      "\u2252": 674,
      "\u2259": 675,
      "\u2261": 676,
      "\u2263": 677,
      "\u2264": 678,
      "\u2265": 679,
      "\u2266": 680,
      "\u2267": 681,
      "\u2268": 682,
      "\u226a": 683,
      "\u226b": 684,
      "\u2272": 685,
      "\u2273": 686,
      "\u2277": 687,
      "\u227a": 688,
      "\u227b": 689,
      "\u227d": 690,
      "\u227f": 691,
      "\u2282": 692,
      "\u2283": 693,
      "\u2286": 694,
      "\u2294": 695,
      "\u2295": 696,
      "\u2296": 697,
      "\u2297": 698,
      "\u2298": 699,
      "\u2299": 700,
      "\u229e": 701,
      "\u229f": 702,
      "\u22a0": 703,
      "\u22a3": 704,
      "\u22a5": 705,
      "\u22bf": 706,
      "\u22c3": 707,
      "\u22c5": 708,
      "\u22c6": 709,
      "\u22d8": 710,
      "\u22d9": 711,
      "\u22dc": 712,
      "\u22dd": 713,
      "\u22ee": 714,
      "\u22ef": 715,
      "\u2300": 716,
      "\u2308": 717,
      "\u2309": 718,
      "\u230a": 719,
      "\u230b": 720,
      "\u231c": 721,
      "\u231d": 722,
      "\u2322": 723,
      "\u2323": 724,
      "\u2374": 725,
      "\u237a": 726,
      "\u2395": 727,
      "\u23af": 728,
      "\u23bc": 729,
      "\u2423": 730,
      "\u2460": 731,
      "\u2461": 732,
      "\u2462": 733,
      "\u2463": 734,
      "\u2464": 735,
      "\u2465": 736,
      "\u2466": 737,
      "\u2467": 738,
      "\u2474": 739,
      "\u2475": 740,
      "\u2476": 741,
      "\u24d2": 742,
      "\u24d5": 743,
      "\u24dd": 744,
      "\u24e1": 745,
      "\u2500": 746,
      "\u2502": 747,
      "\u2505": 748,
      "\u251c": 749,
      "\u2524": 750,
      "\u252c": 751,
      "\u2534": 752,
      "\u2550": 753,
      "\u2551": 754,
      "\u256a": 755,
      "\u2573": 756,
      "\u2591": 757,
      "\u2592": 758,
      "\u2593": 759,
      "\u25a0": 760,
      "\u25a1": 761,
      "\u25aa": 762,
      "\u25ab": 763,
      "\u25ac": 764,
      "\u25b2": 765,
      "\u25b3": 766,
      "\u25b4": 767,
      "\u25b5": 768,
      "\u25b6": 769,
      "\u25b8": 770,
      "\u25b9": 771,
      "\u25ba": 772,
      "\u25bc": 773,
      "\u25bd": 774,
      "\u25be": 775,
      "\u25bf": 776,
      "\u25c6": 777,
      "\u25c7": 778,
      "\u25ca": 779,
      "\u25cb": 780,
      "\u25cf": 781,
      "\u25e6": 782,
      "\u25ef": 783,
      "\u25fb": 784,
      "\u2605": 785,
      "\u2606": 786,
      "\u2609": 787,
      "\u2613": 788,
      "\u263a": 789,
      "\u2640": 790,
      "\u2642": 791,
      "\u2662": 792,
      "\u2666": 793,
      "\u266a": 794,
      "\u266d": 795,
      "\u266f": 796,
      "\u26ab": 797,
      "\u2713": 798,
      "\u2715": 799,
      "\u271c": 800,
      "\u2734": 801,
      "\u2736": 802,
      "\u2756": 803,
      "\u2781": 804,
      "\u2794": 805,
      "\u279d": 806,
      "\u27a2": 807,
      "\u27a4": 808,
      "\u27c2": 809,
      "\u27e6": 810,
      "\u27e7": 811,
      "\u27e8": 812,
      "\u27e9": 813,
      "\u27f5": 814,
      "\u27f6": 815,
      "\u2819": 816,
      "\u2933": 817,
      "\u2981": 818,
      "\u29b5": 819,
      "\u29e7": 820,
      "\u29f8": 821,
      "\u29f9": 822,
      "\u2a01": 823,
      "\u2a02": 824,
      "\u2a2f": 825,
      "\u2a52": 826,
      "\u2a7d": 827,
      "\u2a7e": 828,
      "\u2a7f": 829,
      "\u2a85": 830,
      "\u2a86": 831,
      "\u2a95": 832,
      "\u2a96": 833,
      "\u2aa1": 834,
      "\u2aa2": 835,
      "\u2aaf": 836,
      "\u2b04": 837,
      "\u2b1c": 838,
      "\u2b21": 839,
      "\u2b22": 840,
      "\u2b30": 841,
      "\u2b3d": 842,
      "\u2c54": 843,
      "\u2c6a": 844,
      "\u2e31": 845,
      "\u2fff": 846,
      "\u3001": 847,
      "\u3002": 848,
      "\u3008": 849,
      "\u3009": 850,
      "\u300a": 851,
      "\u300b": 852,
      "\u300c": 853,
      "\u300d": 854,
      "\u3010": 855,
      "\u3011": 856,
      "\u3014": 857,
      "\u3015": 858,
      "\u3016": 859,
      "\u3017": 860,
      "\u301c": 861,
      "\u301d": 862,
      "\u301f": 863,
      "\u3042": 864,
      "\u3075": 865,
      "\u308a": 866,
      "\u30a2": 867,
      "\u30ab": 868,
      "\u30e1": 869,
      "\u30ea": 870,
      "\u30ec": 871,
      "\u30fb": 872,
      "\u30fc": 873,
      "\u3163": 874,
      "\u318d": 875,
      "\u338d": 876,
      "\u3396": 877,
      "\u339b": 878,
      "\u339f": 879,
      "\u33a1": 880,
      "\u33b6": 881,
      "\u4e00": 882,
      "\u4e39": 883,
      "\u502b": 884,
      "\u5173": 885,
      "\u53c2": 886,
      "\u5473": 887,
      "\u56ca": 888,
      "\u5c04": 889,
      "\u5ef6": 890,
      "\u65b9": 891,
      "\u6c14": 892,
      "\u6c64": 893,
      "\u6ce8": 894,
      "\u6d88": 895,
      "\u6db2": 896,
      "\u6e05": 897,
      "\u6e29": 898,
      "\u6f5c": 899,
      "\u70ed": 900,
      "\u7247": 901,
      "\u7600": 902,
      "\u761f": 903,
      "\u76ca": 904,
      "\u795b": 905,
      "\u7c92": 906,
      "\u7ea2": 907,
      "\u809d": 908,
      "\u80be": 909,
      "\u80f6": 910,
      "\u8109": 911,
      "\u827e": 912,
      "\u8282": 913,
      "\u828e": 914,
      "\u8363": 915,
      "\u8840": 916,
      "\u8865": 917,
      "\u8d25": 918,
      "\u9897": 919,
      "\u996e": 920,
      "\u9aa8": 921,
      "\ua78a": 922,
      "\ua78c": 923,
      "\ua7b5": 924,
      "\ua7b7": 925,
      "\ufb00": 926,
      "\ufb01": 927,
      "\ufb02": 928,
      "\ufb03": 929,
      "\ufb04": 930,
      "\ufd3e": 931,
      "\ufd3f": 932,
      "\ufe30": 933,
      "\ufe52": 934,
      "\ufe5a": 935,
      "\ufe5b": 936,
      "\ufe62": 937,
      "\ufe63": 938,
      "\ufe64": 939,
      "\ufe65": 940,
      "\ufe69": 941,
      "\uff05": 942,
      "\uff06": 943,
      "\uff07": 944,
      "\uff08": 945,
      "\uff09": 946,
      "\uff0a": 947,
      "\uff0b": 948,
      "\uff0c": 949,
      "\uff0d": 950,
      "\uff0e": 951,
      "\uff0f": 952,
      "\uff1a": 953,
      "\uff1b": 954,
      "\uff1c": 955,
      "\uff1d": 956,
      "\uff1e": 957,
      "\uff1f": 958,
      "\uff3b": 959,
      "\uff3d": 960,
      "\uff3e": 961,
      "\uff3f": 962,
      "\uff43": 963,
      "\uff49": 964,
      "\uff4d": 965,
      "\uff50": 966,
      "\uff56": 967,
      "\uff57": 968,
      "\uff5b": 969,
      "\uff5c": 970,
      "\uff5d": 971,
      "\uff5e": 972,
      "\uff62": 973,
      "\uff64": 974,
      "\uff65": 975,
      "\uff71": 976,
      "\uff75": 977,
      "\uffe1": 978,
      "\uffe5": 979,
      "\uffe6": 980,
      "\ufffc": 981,
      "\ud835\udc2b": 982,
      "\ud835\udc34": 983,
      "\ud835\udc38": 984,
      "\ud835\udc41": 985,
      "\ud835\udc43": 986,
      "\ud835\udc51": 987,
      "\ud835\udc52": 988,
      "\ud835\udc53": 989,
      "\ud835\udc56": 990,
      "\ud835\udc5b": 991,
      "\ud835\udc5c": 992,
      "\ud835\udc5f": 993,
      "\ud835\udc61": 994,
      "\ud835\udc65": 995,
      "\ud835\udc86": 996,
      "\ud835\udc99": 997,
      "\ud835\udc9e": 998,
      "\ud835\udc9f": 999,
      "\ud835\udca2": 1000,
      "\ud835\udca9": 1001,
      "\ud835\udcaa": 1002,
      "\ud835\udcab": 1003,
      "\ud835\udcae": 1004,
      "\ud835\udcaf": 1005,
      "\ud835\udd07": 1006,
      "\ud835\udd09": 1007,
      "\ud835\udd10": 1008,
      "\ud835\udd39": 1009,
      "\ud835\udd4a": 1010,
      "\ud835\udd5c": 1011,
      "\ud835\uddb1": 1012,
      "\ud835\ude17": 1013,
      "\ud835\udec6": 1014,
      "\ud835\udefc": 1015,
      "\ud835\udefd": 1016,
      "\ud835\udf00": 1017,
      "\ud835\udf02": 1018,
      "\ud835\udf03": 1019,
      "\ud835\udf05": 1020,
      "\ud835\udf07": 1021,
      "\ud835\udf0c": 1022,
      "\ud835\udf12": 1023,
      "\ud835\udf16": 1024,
      "\ud835\udf17": 1025,
      "\ud835\udf41": 1026,
      "\ud835\udfc0": 1027,
      "\ud880\udc0e": 1028,
      "##a": 1029,
      "##l": 1030,
      "##d": 1031,
      "##r": 1032,
      "##c": 1033,
      "##h": 1034,
      "##e": 1035,
      "##o": 1036,
      "##s": 1037,
      "##t": 1038,
      "##0": 1039,
      "##1": 1040,
      "##3": 1041,
      "##2": 1042,
      "##5": 1043,
      "##9": 1044,
      "##m": 1045,
      "##w": 1046,
      "##p": 1047,
      "##i": 1048,
      "##n": 1049,
      "##v": 1050,
      "##y": 1051,
      "##6": 1052,
      "##8": 1053,
      "##4": 1054,
      "##\u00b1": 1055,
      "##b": 1056,
      "##u": 1057,
      "##g": 1058,
      "##7": 1059,
      "##f": 1060,
      "##\u00b0": 1061,
      "##k": 1062,
      "##z": 1063,
      "##\u2170": 1064,
      "##x": 1065,
      "##q": 1066,
      "##j": 1067,
      "##\u2264": 1068,
      "##\u00a9": 1069,
      "##\u03b2": 1070,
      "##\u2192": 1071,
      "##\u00d7": 1072,
      "##\u00b5": 1073,
      "##\u03bc": 1074,
      "##\u2217": 1075,
      "##\u2265": 1076,
      "##\u207b": 1077,
      "##\u207a": 1078,
      "##\u00f7": 1079,
      "##\u2215": 1080,
      "##\u2122": 1081,
      "##\u00ae": 1082,
      "##\u2082": 1083,
      "##\u03b1": 1084,
      "##\u00df": 1085,
      "##\u03b3": 1086,
      "##\u03b7": 1087,
      "##\u00bd": 1088,
      "##\u223c": 1089,
      "##\u2084": 1090,
      "##\u03b4": 1091,
      "##\u00a3": 1092,
      "##\u2219": 1093,
      "##\u00b9": 1094,
      "##\u2089": 1095,
      "##\u00ba": 1096,
      "##\u2086": 1097,
      "##\u2080": 1098,
      "##\u2236": 1099,
      "##\u2081": 1100,
      "##\u208b": 1101,
      "##\u2083": 1102,
      "##\u00b4": 1103,
      "##\u22ef": 1104,
      "##\u2194": 1105,
      "##\u2075": 1106,
      "##\u2193": 1107,
      "##\u2213": 1108,
      "##\u0142": 1109,
      "##\u2074": 1110,
      "##\u22c5": 1111,
      "##\u2171": 1112,
      "##\u02da": 1113,
      "##\u2550": 1114,
      "##\u2248": 1115,
      "##\u02d9": 1116,
      "##\u03b5": 1117,
      "##\u20ac": 1118,
      "##\u00b3": 1119,
      "##\u2076": 1120,
      "##\u00b2": 1121,
      "##\u2172": 1122,
      "##\u03c6": 1123,
      "##\u2085": 1124,
      "##\u2a7e": 1125,
      "##\u2227": 1126,
      "##\u2218": 1127,
      "##\u2206": 1128,
      "##\uff71": 1129,
      "##\u043e": 1130,
      "##\u03c4": 1131,
      "##\u2070": 1132,
      "##\ud835\udc61": 1133,
      "##\ud835\udc5f": 1134,
      "##\ud835\udc52": 1135,
      "##\ud835\udc5b": 1136,
      "##\ud835\udc51": 1137,
      "##\u2087": 1138,
      "##\u00ac": 1139,
      "##\u2642": 1140,
      "##\u2078": 1141,
      "##\u00f8": 1142,
      "##\u2229": 1143,
      "##\u03c1": 1144,
      "##\ufb03": 1145,
      "##\ufb01": 1146,
      "##\u0131": 1147,
      "##\u03d5": 1148,
      "##\u2212": 1149,
      "##\u03c3": 1150,
      "##\u03b9": 1151,
      "##\uff1c": 1152,
      "##\u25cf": 1153,
      "##\u2191": 1154,
      "##\u2044": 1155,
      "##\uff1e": 1156,
      "##\u2190": 1157,
      "##\u03c9": 1158,
      "##\u2079": 1159,
      "##\u2103": 1160,
      "##\u2261": 1161,
      "##\u03ba": 1162,
      "##\u2a7d": 1163,
      "##\u2266": 1164,
      "##\u03b6": 1165,
      "##\u25b3": 1166,
      "##\u03c0": 1167,
      "##\u00af": 1168,
      "##\u0447": 1169,
      "##\u03c7": 1170,
      "##\u339b": 1171,
      "##\u03f5": 1172,
      "##\u0199": 1173,
      "##\u2088": 1174,
      "##\u00a2": 1175,
      "##\u2113": 1176,
      "##\u2205": 1177,
      "##\u2223": 1178,
      "##\u2077": 1179,
      "##\u0251": 1180,
      "##\u0441": 1181,
      "##\u043f": 1182,
      "##\u2282": 1183,
      "##\u222b": 1184,
      "##\u2243": 1185,
      "##\u0259": 1186,
      "##\u25e6": 1187,
      "##\u03bb": 1188,
      "##\u014b": 1189,
      "##\u22c6": 1190,
      "##\u00e6": 1191,
      "##\ufb02": 1192,
      "##\u251c": 1193,
      "##\uff5e": 1194,
      "##\u22a5": 1195,
      "##\u0442": 1196,
      "##\u0430": 1197,
      "##\u03bd": 1198,
      "##\u043a": 1199,
      "##\u0111": 1200,
      "##\u20ba": 1201,
      "##\u210f": 1202,
      "##\u2245": 1203,
      "##\u02e4": 1204,
      "##\u2500": 1205,
      "##\u043c": 1206,
      "##\u03b8": 1207,
      "##\u2234": 1208,
      "##\u03bf": 1209,
      "##\u03c2": 1210,
      "##\u2267": 1211,
      "##\u0435": 1212,
      "##\uff49": 1213,
      "##\uff56": 1214,
      "##\u2b1c": 1215,
      "##\u226a": 1216,
      "##\u025b": 1217,
      "##\u226b": 1218,
      "##\u2216": 1219,
      "##\u221e": 1220,
      "##\u2225": 1221,
      "##\u02dc": 1222,
      "##\u2423": 1223,
      "##\u00b8": 1224,
      "##\uff1d": 1225,
      "##\u221d": 1226,
      "##\u25b8": 1227,
      "##\u0448": 1228,
      "##\u0438": 1229,
      "##\u0432": 1230,
      "##\u043d": 1231,
      "##\u0456": 1232,
      "##\u02d8": 1233,
      "##\u2297": 1234,
      "##\u2211": 1235,
      "##\u0440": 1236,
      "##\u0443": 1237,
      "##\u044e": 1238,
      "##\u044c": 1239,
      "##\u217b": 1240,
      "##\u2640": 1241,
      "##\u221a": 1242,
      "##\u03c5": 1243,
      "##\u2298": 1244,
      "##\u03be": 1245,
      "##\u00a8": 1246,
      "##\u02d0": 1247,
      "##\uff0b": 1248,
      "##\u00fe": 1249,
      "##\u0471": 1250,
      "##\u2273": 1251,
      "##\u02b9": 1252,
      "##\u237a": 1253,
      "##\u25ac": 1254,
      "##\u0192": 1255,
      "##\u25a1": 1256,
      "##\u220b": 1257,
      "##\u02c7": 1258,
      "##\u019e": 1259,
      "##\u00bc": 1260,
      "##\u03c8": 1261,
      "##\u2105": 1262,
      "##\u02ee": 1263,
      "##\u02c6": 1264,
      "##\u2173": 1265,
      "##\u044f": 1266,
      "##\u00aa": 1267,
      "##\u2208": 1268,
      "##\u1db2": 1269,
      "##\u00a5": 1270,
      "##\u1170": 1271,
      "##\u11a8": 1272,
      "##\u0283": 1273,
      "##\u2573": 1274,
      "##\u21b7": 1275,
      "##\u211d": 1276,
      "##\ufb00": 1277,
      "##\u25aa": 1278,
      "##\u24e1": 1279,
      "##\u0153": 1280,
      "##\u0254": 1281,
      "##\u2272": 1282,
      "##\u22ee": 1283,
      "##\u0e32": 1284,
      "##\u0e27": 1285,
      "##\u0275": 1286,
      "##\u2295": 1287,
      "##\u2592": 1288,
      "##\u222a": 1289,
      "##\u0384": 1290,
      "##\u043b": 1291,
      "##\u2237": 1292,
      "##\u0436": 1293,
      "##\u02c3": 1294,
      "##\u25cb": 1295,
      "##\u02c2": 1296,
      "##\u25b5": 1297,
      "##\u1d5d": 1298,
      "##\u02dd": 1299,
      "##\u1fbd": 1300,
      "##\u21cb": 1301,
      "##\ua7b5": 1302,
      "##\u21d2": 1303,
      "##\u0454": 1304,
      "##\u00f0": 1305,
      "##\u2524": 1306,
      "##\ua78c": 1307,
      "##\u0444": 1308,
      "##\u0282": 1309,
      "##\ud835\udefd": 1310,
      "##\u2a85": 1311,
      "##\u23bc": 1312,
      "##\u2107": 1313,
      "##\u1174": 1314,
      "##\u1112": 1315,
      "##\u1161": 1316,
      "##\u1106": 1317,
      "##\u1167": 1318,
      "##\u11ab": 1319,
      "##\u1175": 1320,
      "##\u110c": 1321,
      "##\u01ad": 1322,
      "##\u02de": 1323,
      "##\u0225": 1324,
      "##\u22dd": 1325,
      "##\u1168": 1326,
      "##\u1109": 1327,
      "##\u1169": 1328,
      "##\u0e2d": 1329,
      "##\u0e07": 1330,
      "##\u2286": 1331,
      "##\u2b30": 1332,
      "##\u0434": 1333,
      "##\u2299": 1334,
      "##\u2502": 1335,
      "##\u21d4": 1336,
      "##\u2a86": 1337,
      "##\u0381": 1338,
      "##\u0660": 1339,
      "##\u2609": 1340,
      "##\u29e7": 1341,
      "##\u2aa2": 1342,
      "##\u21c7": 1343,
      "##\u025a": 1344,
      "##\u026a": 1345,
      "##\u116d": 1346,
      "##\u110b": 1347,
      "##\u1166": 1348,
      "##\u1d67": 1349,
      "##\u30ea": 1350,
      "##\u30e1": 1351,
      "##\u30ab": 1352,
      "##\u2195": 1353,
      "##\u0e3f": 1354,
      "##\u29f8": 1355,
      "##\u2202": 1356,
      "##\u1165": 1357,
      "##\u1107": 1358,
      "##\u1100": 1359,
      "##\u0445": 1360,
      "##\u21a6": 1361,
      "##\u0446": 1362,
      "##\u115f": 1363,
      "##\u21d1": 1364,
      "##\u21d3": 1365,
      "##\u0433": 1366,
      "##\u21cc": 1367,
      "##\u028a": 1368,
      "##\u1d0b": 1369,
      "##\u220a": 1370,
      "##\u04e9": 1371,
      "##\u229f": 1372,
      "##\u11b7": 1373,
      "##\u0431": 1374,
      "##\u1162": 1375,
      "##\u2283": 1376,
      "##\u11bc": 1377,
      "##\u116e": 1378,
      "##\u00a4": 1379,
      "##\u0298": 1380,
      "##\u0127": 1381,
      "##\u0278": 1382,
      "##\u211e": 1383,
      "##\u2296": 1384,
      "##\u11af": 1385,
      "##\u0e01": 1386,
      "##\u0e43": 1387,
      "##\u0e15": 1388,
      "##\u0e1a": 1389,
      "##\u0292": 1390,
      "##\u21dd": 1391,
      "##\u07da": 1392,
      "##\u0437": 1393,
      "##\u1103": 1394,
      "##\u27f6": 1395,
      "##\u02d1": 1396,
      "##\ufb04": 1397,
      "##\u2fff": 1398,
      "##\u2a2f": 1399,
      "##\u1105": 1400,
      "##\u116c": 1401,
      "##\u11aa": 1402,
      "##\u2263": 1403,
      "##\u25bc": 1404,
      "##\u1173": 1405,
      "##\u22a0": 1406,
      "##\u093f": 1407,
      "##\u0930": 1408,
      "##\u0923": 1409,
      "##\u116a": 1410,
      "##\u2277": 1411,
      "##\u2198": 1412,
      "##\u028e": 1413,
      "##\u110e": 1414,
      "##\u038d": 1415,
      "##\u263a": 1416,
      "##\u227d": 1417,
      "##\u0665": 1418,
      "##\u0138": 1419,
      "##\u2127": 1420,
      "##\u2250": 1421,
      "##\u0281": 1422,
      "##\u2a52": 1423,
      "##\u1d13": 1424,
      "##\u0263": 1425,
      "##\u2177": 1426,
      "##\u2534": 1427,
      "##\u0662": 1428,
      "##\u0668": 1429,
      "##\u04bb": 1430,
      "##\ud835\udcaf": 1431,
      "##\u0644": 1432,
      "##\u0639": 1433,
      "##\u0631": 1434,
      "##\u0648": 1435,
      "##\u2174": 1436,
      "##\u2112": 1437,
      "##\u0294": 1438,
      "##\u21c4": 1439,
      "##\u25a0": 1440,
      "##\u2252": 1441,
      "##\u2794": 1442,
      "##\u2207": 1443,
      "##\u02bc": 1444,
      "##\u227f": 1445,
      "##\u21c0": 1446,
      "##\u2175": 1447,
      "##\u2153": 1448,
      "##\u23af": 1449,
      "##\u03f1": 1450,
      "##\u116f": 1451,
      "##\u2200": 1452,
      "##\u0473": 1453,
      "##\u07dd": 1454,
      "##\u2b22": 1455,
      "##\u2178": 1456,
      "##\u231d": 1457,
      "##\u1d35": 1458,
      "##\u1d3a": 1459,
      "##\u1d37": 1460,
      "##\u1d43": 1461,
      "##\u318d": 1462,
      "##\u02e0": 1463,
      "##\u27f5": 1464,
      "##\u01c1": 1465,
      "##\u093e": 1466,
      "##\u0932": 1467,
      "##\u0915": 1468,
      "##\u2666": 1469,
      "##\u11a9": 1470,
      "##\u2176": 1471,
      "##\u224a": 1472,
      "##\u0455": 1473,
      "##\u0242": 1474,
      "##\u0269": 1475,
      "##\u03d6": 1476,
      "##\u220f": 1477,
      "##\u24d2": 1478,
      "##\u208c": 1479,
      "##\u2606": 1480,
      "##\u05d0": 1481,
      "##\u05e9": 1482,
      "##\u05d9": 1483,
      "##\u04a1": 1484,
      "##\u1d50": 1485,
      "##\u04cf": 1486,
      "##\ud835\udc56": 1487,
      "##\u0252": 1488,
      "##\u0277": 1489,
      "##\u0253": 1490,
      "##\u0380": 1491,
      "##\u1104": 1492,
      "##\u11c2": 1493,
      "##\u1d10": 1494,
      "##\u211c": 1495,
      "##\u02ed": 1496,
      "##\u227a": 1497,
      "##\u2591": 1498,
      "##\u03d2": 1499,
      "##\u1172": 1500,
      "##\u1102": 1501,
      "##\u266d": 1502,
      "##\u1d2a": 1503,
      "##\u2154": 1504,
      "##\u1d52": 1505,
      "##\u20a4": 1506,
      "##\u266f": 1507,
      "##\u2071": 1508,
      "##\u279d": 1509,
      "##\uffe5": 1510,
      "##\u0475": 1511,
      "##\ud835\udf03": 1512,
      "##\u02b0": 1513,
      "##\ud835\udc86": 1514,
      "##\u02f4": 1515,
      "##\u0939": 1516,
      "##\u22a3": 1517,
      "##\u1101": 1518,
      "##\uff4d": 1519,
      "##\u0661": 1520,
      "##\u11bb": 1521,
      "##\u03d1": 1522,
      "##\u219d": 1523,
      "##\u03f2": 1524,
      "##\ud835\udc9e": 1525,
      "##\u01c0": 1526,
      "##\u03ed": 1527,
      "##\u019b": 1528,
      "##\u02b1": 1529,
      "##\uff75": 1530,
      "##\u252c": 1531,
      "##\u223d": 1532,
      "##\u2179": 1533,
      "##\u1d02": 1534,
      "##\u22d9": 1535,
      "##\u2133": 1536,
      "##\u11ba": 1537,
      "##\u25bf": 1538,
      "##\u00a6": 1539,
      "##\u00be": 1540,
      "##\uff5c": 1541,
      "##\u0276": 1542,
      "##\u2613": 1543,
      "##\u1d57": 1544,
      "##\u2120": 1545,
      "##\u04ab": 1546,
      "##\u0627": 1547,
      "##\u0641": 1548,
      "##\u0268": 1549,
      "##\u028c": 1550,
      "##\u0264": 1551,
      "##\u11b8": 1552,
      "##\u01b4": 1553,
      "##\u02c9": 1554,
      "##\ud835\udc41": 1555,
      "##\u1fbf": 1556,
      "##\u03f0": 1557,
      "##\u0256": 1558,
      "##\ud835\udf00": 1559,
      "##\u20b5": 1560,
      "##\u29f9": 1561,
      "##\u2551": 1562,
      "##\u023c": 1563,
      "##\u1171": 1564,
      "##\u2c6a": 1565,
      "##\u2461": 1566,
      "##\u01dd": 1567,
      "##\u2715": 1568,
      "##\u0255": 1569,
      "##\u0279": 1570,
      "##\u2116": 1571,
      "##\u11ad": 1572,
      "##\u03d0": 1573,
      "##\u2713": 1574,
      "##\u037b": 1575,
      "##\u02b7": 1576,
      "##\u22dc": 1577,
      "##\u2093": 1578,
      "##\u3163": 1579,
      "##\u02c4": 1580,
      "##\u22d8": 1581,
      "##\u266a": 1582,
      "##\u2131": 1583,
      "##\u0223": 1584,
      "##\u2220": 1585,
      "##\u221f": 1586,
      "##\uff3e": 1587,
      "##\u0373": 1588,
      "##\u0e1f": 1589,
      "##\u0e19": 1590,
      "##\ud835\udc53": 1591,
      "##\ud835\udc5c": 1592,
      "##\u1111": 1593,
      "##\u028f": 1594,
      "##\u3075": 1595,
      "##\ufe65": 1596,
      "##\u0664": 1597,
      "##\u04af": 1598,
      "##\u0669": 1599,
      "##\ufe62": 1600,
      "##\u21bc": 1601,
      "##\u0e41": 1602,
      "##\u0e25": 1603,
      "##\u0e30": 1604,
      "##\u0e02": 1605,
      "##\u0e20": 1606,
      "##\u0e1e": 1607,
      "##\u0e22": 1608,
      "##\u0e23": 1609,
      "##\u0e1b": 1610,
      "##\u0e40": 1611,
      "##\u0e17": 1612,
      "##\u0e28": 1613,
      "##\u0e44": 1614,
      "##\u0640": 1615,
      "##\u02b2": 1616,
      "##\u0289": 1617,
      "##\u20a9": 1618,
      "##\u0383": 1619,
      "##\u20a3": 1620,
      "##\u2197": 1621,
      "##\u217a": 1622,
      "##\u11be": 1623,
      "##\u0250": 1624,
      "##\u2117": 1625,
      "##\u2124": 1626,
      "##\u21c6": 1627,
      "##\u044d": 1628,
      "##\u026c": 1629,
      "##\u22bf": 1630,
      "##\u1110": 1631,
      "##\u049b": 1632,
      "##\u2300": 1633,
      "##\u2b3d": 1634,
      "##\u045b": 1635,
      "##\u1d0f": 1636,
      "##\u224d": 1637,
      "##\u026e": 1638,
      "##\u30fc": 1639,
      "##\ufffc": 1640,
      "##\u2322": 1641,
      "##\u25b4": 1642,
      "##\uff50": 1643,
      "##\ud835\udec6": 1644,
      "##\u062f": 1645,
      "##\u062a": 1646,
      "##\u2199": 1647,
      "##\ufe64": 1648,
      "##\u027e": 1649,
      "##\u0667": 1650,
      "##\u2a02": 1651,
      "##\u2b21": 1652,
      "##\u224f": 1653,
      "##\u110f": 1654,
      "##\u21d0": 1655,
      "##\u30ec": 1656,
      "##\u338d": 1657,
      "##\u0290": 1658,
      "##\u2981": 1659,
      "##\u2aa1": 1660,
      "##\u25ca": 1661,
      "##\u11de": 1662,
      "##\ud835\udf05": 1663,
      "##\u2323": 1664,
      "##\u0266": 1665,
      "##\u02ba": 1666,
      "##\ua78a": 1667,
      "##\u026f": 1668,
      "##\u2135": 1669,
      "##\u028b": 1670,
      "##\ua7b7": 1671,
      "##\u207f": 1672,
      "##\u0458": 1673,
      "##\ud880\udc0e": 1674,
      "##\u2593": 1675,
      "##\u2a7f": 1676,
      "##\u0585": 1677,
      "##\u25ef": 1678,
      "##\u0271": 1679,
      "##ti": 1680,
      "##er": 1681,
      "##on": 1682,
      "th": 1683,
      "##en": 1684,
      "##es": 1685,
      "##ed": 1686,
      "##in": 1687,
      "##al": 1688,
      "the": 1689,
      "in": 1690,
      "##or": 1691,
      "##at": 1692,
      "an": 1693,
      "of": 1694,
      "##an": 1695,
      "##it": 1696,
      "##tion": 1697,
      "##as": 1698,
      "##ro": 1699,
      "and": 1700,
      "##ar": 1701,
      "##ic": 1702,
      "##is": 1703,
      "##ent": 1704,
      "##re": 1705,
      "##ec": 1706,
      "##el": 1707,
      "to": 1708,
      "##ing": 1709,
      "##ation": 1710,
      "##ul": 1711,
      "##et": 1712,
      "##ol": 1713,
      "##om": 1714,
      "##ac": 1715,
      "##ur": 1716,
      "##os": 1717,
      "##ith": 1718,
      "with": 1719,
      "##us": 1720,
      "##id": 1721,
      "##ve": 1722,
      "##le": 1723,
      "##ati": 1724,
      "con": 1725,
      "st": 1726,
      "##ly": 1727,
      "##th": 1728,
      "##ig": 1729,
      "##ere": 1730,
      "##ter": 1731,
      "re": 1732,
      "for": 1733,
      "pro": 1734,
      "##il": 1735,
      "##em": 1736,
      "as": 1737,
      "##am": 1738,
      "##ts": 1739,
      "##od": 1740,
      "##ess": 1741,
      "was": 1742,
      "##ow": 1743,
      "##un": 1744,
      "##uc": 1745,
      "##ate": 1746,
      "##if": 1747,
      "##ated": 1748,
      "##ut": 1749,
      "##ce": 1750,
      "res": 1751,
      "is": 1752,
      "##um": 1753,
      "ex": 1754,
      "##ion": 1755,
      "##im": 1756,
      "on": 1757,
      "##tr": 1758,
      "##oc": 1759,
      "were": 1760,
      "##op": 1761,
      "##ab": 1762,
      "##tic": 1763,
      "##ity": 1764,
      "##ot": 1765,
      "##ir": 1766,
      "ch": 1767,
      "##ents": 1768,
      "com": 1769,
      "ac": 1770,
      "##ain": 1771,
      "al": 1772,
      "##ad": 1773,
      "##ag": 1774,
      "##ys": 1775,
      "##ver": 1776,
      "##ud": 1777,
      "##og": 1778,
      "be": 1779,
      "that": 1780,
      "##ell": 1781,
      "##ap": 1782,
      "or": 1783,
      "wh": 1784,
      "by": 1785,
      "##rom": 1786,
      "##ical": 1787,
      "##ant": 1788,
      "##tin": 1789,
      "at": 1790,
      "##igh": 1791,
      "##ine": 1792,
      "pr": 1793,
      "pati": 1794,
      "de": 1795,
      "su": 1796,
      "comp": 1797,
      "tr": 1798,
      "##ib": 1799,
      "##ment": 1800,
      "##ted": 1801,
      "##mp": 1802,
      "##vel": 1803,
      "ad": 1804,
      "dis": 1805,
      "##ff": 1806,
      "##ase": 1807,
      "inc": 1808,
      "sp": 1809,
      "le": 1810,
      "ne": 1811,
      "we": 1812,
      "##ay": 1813,
      "per": 1814,
      "this": 1815,
      "##ure": 1816,
      "us": 1817,
      "patients": 1818,
      "##ip": 1819,
      "from": 1820,
      "##ial": 1821,
      "sh": 1822,
      "are": 1823,
      "##qu": 1824,
      "un": 1825,
      "en": 1826,
      "##ch": 1827,
      "##ence": 1828,
      "##tive": 1829,
      "##pp": 1830,
      "stud": 1831,
      "##ign": 1832,
      "##iv": 1833,
      "se": 1834,
      "##iz": 1835,
      "##ress": 1836,
      "##orm": 1837,
      "ass": 1838,
      "##ific": 1839,
      "exp": 1840,
      "##yp": 1841,
      "cell": 1842,
      "rec": 1843,
      "ind": 1844,
      "##fer": 1845,
      "##ies": 1846,
      "##ous": 1847,
      "##te": 1848,
      "##ers": 1849,
      "##ations": 1850,
      "met": 1851,
      "##ge": 1852,
      "he": 1853,
      "##ens": 1854,
      "eff": 1855,
      "##ph": 1856,
      "##ans": 1857,
      "no": 1858,
      "##ia": 1859,
      "##ort": 1860,
      "##tor": 1861,
      "not": 1862,
      "##rou": 1863,
      "pl": 1864,
      "cl": 1865,
      "##oun": 1866,
      "##tiv": 1867,
      "ph": 1868,
      "ab": 1869,
      "##ting": 1870,
      "##ore": 1871,
      "inf": 1872,
      "di": 1873,
      "##ons": 1874,
      "resul": 1875,
      "pre": 1876,
      "imp": 1877,
      "##ary": 1878,
      "##ition": 1879,
      "sign": 1880,
      "##ect": 1881,
      "resp": 1882,
      "##ular": 1883,
      "cont": 1884,
      "##enti": 1885,
      "##ear": 1886,
      "##est": 1887,
      "ev": 1888,
      "car": 1889,
      "##oth": 1890,
      "ob": 1891,
      "gen": 1892,
      "inter": 1893,
      "##cl": 1894,
      "##ased": 1895,
      "pos": 1896,
      "am": 1897,
      "dif": 1898,
      "co": 1899,
      "##ding": 1900,
      "par": 1901,
      "##reat": 1902,
      "rep": 1903,
      "me": 1904,
      "bet": 1905,
      "##ight": 1906,
      "##00": 1907,
      "##olog": 1908,
      "high": 1909,
      "##erm": 1910,
      "rel": 1911,
      "##ast": 1912,
      "##der": 1913,
      "study": 1914,
      "##st": 1915,
      "##ose": 1916,
      "##able": 1917,
      "results": 1918,
      "can": 1919,
      "##ep": 1920,
      "incre": 1921,
      "app": 1922,
      "##roup": 1923,
      "##ese": 1924,
      "##ance": 1925,
      "ha": 1926,
      "trans": 1927,
      "signific": 1928,
      "group": 1929,
      "##ative": 1930,
      "af": 1931,
      "##all": 1932,
      "sub": 1933,
      "##ath": 1934,
      "differ": 1935,
      "meth": 1936,
      "##yl": 1937,
      "##iti": 1938,
      "##usion": 1939,
      "reg": 1940,
      "##low": 1941,
      "##ich": 1942,
      "significant": 1943,
      "##enc": 1944,
      "sur": 1945,
      "these": 1946,
      "##age": 1947,
      "##and": 1948,
      "med": 1949,
      "str": 1950,
      "mod": 1951,
      "cons": 1952,
      "##one": 1953,
      "##ied": 1954,
      "##ue": 1955,
      "##ally": 1956,
      "sc": 1957,
      "##vi": 1958,
      "date": 1959,
      "##rol": 1960,
      "anal": 1961,
      "##duc": 1962,
      "int": 1963,
      "##ved": 1964,
      "##ression": 1965,
      "##ong": 1966,
      "##we": 1967,
      "pres": 1968,
      "##ist": 1969,
      "ar": 1970,
      "##ection": 1971,
      "##ach": 1972,
      "compar": 1973,
      "after": 1974,
      "##end": 1975,
      "cells": 1976,
      "det": 1977,
      "im": 1978,
      "##ound": 1979,
      "##ther": 1980,
      "##lo": 1981,
      "##ween": 1982,
      "between": 1983,
      "##our": 1984,
      "##ug": 1985,
      "method": 1986,
      "10": 1987,
      "which": 1988,
      "have": 1989,
      "spec": 1990,
      "##atin": 1991,
      "show": 1992,
      "cor": 1993,
      "##ide": 1994,
      "mic": 1995,
      "all": 1996,
      "##ual": 1997,
      "activ": 1998,
      "##oci": 1999,
      "##ub": 2000,
      "##ak": 2001,
      "##pl": 2002,
      "than": 2003,
      "inv": 2004,
      "level": 2005,
      "mon": 2006,
      "##ction": 2007,
      "##ges": 2008,
      "there": 2009,
      "##ros": 2010,
      "treat": 2011,
      "but": 2012,
      "tw": 2013,
      "##yst": 2014,
      "##ator": 2015,
      "fol": 2016,
      "##entr": 2017,
      "##ive": 2018,
      "##ater": 2019,
      "low": 2020,
      "##ects": 2021,
      "##ari": 2022,
      "ag": 2023,
      "##ard": 2024,
      "##ates": 2025,
      "anti": 2026,
      "dr": 2027,
      "##ome": 2028,
      "##ost": 2029,
      "##ill": 2030,
      "##yn": 2031,
      "##ely": 2032,
      "##ected": 2033,
      "has": 2034,
      "year": 2035,
      "fac": 2036,
      "##tein": 2037,
      "##alu": 2038,
      "##form": 2039,
      "hyp": 2040,
      "associ": 2041,
      "##osis": 2042,
      "control": 2043,
      "##ective": 2044,
      "##ases": 2045,
      "##ech": 2046,
      "##tim": 2047,
      "tim": 2048,
      "##act": 2049,
      "dec": 2050,
      "chan": 2051,
      "dur": 2052,
      "##per": 2053,
      "treatment": 2054,
      "##lu": 2055,
      "##dition": 2056,
      "##vely": 2057,
      "using": 2058,
      "##anc": 2059,
      "##ft": 2060,
      "##ri": 2061,
      "##ility": 2062,
      "##unction": 2063,
      "ca": 2064,
      "##se": 2065,
      "##ree": 2066,
      "##so": 2067,
      "had": 2068,
      "##na": 2069,
      "more": 2070,
      "analys": 2071,
      "##ating": 2072,
      "col": 2073,
      "it": 2074,
      "two": 2075,
      "##cr": 2076,
      "##ass": 2077,
      "##ox": 2078,
      "been": 2079,
      "##ulation": 2080,
      "##ures": 2081,
      "over": 2082,
      "ser": 2083,
      "##lic": 2084,
      "##iss": 2085,
      "dat": 2086,
      "des": 2087,
      "up": 2088,
      "clin": 2089,
      "##cer": 2090,
      "may": 2091,
      "##ized": 2092,
      "concl": 2093,
      "protein": 2094,
      "also": 2095,
      "assess": 2096,
      "##out": 2097,
      "fin": 2098,
      "both": 2099,
      "li": 2100,
      "##ease": 2101,
      "out": 2102,
      "##mun": 2103,
      "respons": 2104,
      "red": 2105,
      "##amin": 2106,
      "12": 2107,
      "##tions": 2108,
      "syst": 2109,
      "##cess": 2110,
      "##velop": 2111,
      "id": 2112,
      "bi": 2113,
      "follow": 2114,
      "##ame": 2115,
      "##urr": 2116,
      "##ack": 2117,
      "##yt": 2118,
      "20": 2119,
      "develop": 2120,
      "fe": 2121,
      "dep": 2122,
      "##tal": 2123,
      "##agn": 2124,
      "during": 2125,
      "##uld": 2126,
      "##ormal": 2127,
      "##ium": 2128,
      "man": 2129,
      "el": 2130,
      "##ym": 2131,
      "##ct": 2132,
      "meas": 2133,
      "##ild": 2134,
      "mg": 2135,
      "##hib": 2136,
      "##ital": 2137,
      "##cc": 2138,
      "##uced": 2139,
      "used": 2140,
      "increased": 2141,
      "data": 2142,
      "their": 2143,
      "##ob": 2144,
      "##ult": 2145,
      "##ven": 2146,
      "incl": 2147,
      "other": 2148,
      "conclusion": 2149,
      "non": 2150,
      "function": 2151,
      "##erap": 2152,
      "ins": 2153,
      "methods": 2154,
      "rem": 2155,
      "##acter": 2156,
      "clinical": 2157,
      "compared": 2158,
      "one": 2159,
      "##atic": 2160,
      "present": 2161,
      "##aph": 2162,
      "patient": 2163,
      "##ond": 2164,
      "under": 2165,
      "min": 2166,
      "system": 2167,
      "es": 2168,
      "suc": 2169,
      "time": 2170,
      "how": 2171,
      "##ail": 2172,
      "##ained": 2173,
      "sug": 2174,
      "obs": 2175,
      "pt": 2176,
      "heal": 2177,
      "associated": 2178,
      "ris": 2179,
      "##br": 2180,
      "factor": 2181,
      "includ": 2182,
      "##ogen": 2183,
      "##atory": 2184,
      "evalu": 2185,
      "##ism": 2186,
      "contr": 2187,
      "##ays": 2188,
      "end": 2189,
      "sm": 2190,
      "##ological": 2191,
      "sim": 2192,
      "vari": 2193,
      "significantly": 2194,
      "po": 2195,
      "fr": 2196,
      "##und": 2197,
      "##gen": 2198,
      "analysis": 2199,
      "br": 2200,
      "disease": 2201,
      "cr": 2202,
      "##ite": 2203,
      "##mon": 2204,
      "##ymp": 2205,
      "gl": 2206,
      "acc": 2207,
      "typ": 2208,
      "##ogr": 2209,
      "qu": 2210,
      "##ace": 2211,
      "gr": 2212,
      "##itor": 2213,
      "##ber": 2214,
      "perform": 2215,
      "levels": 2216,
      "health": 2217,
      "indic": 2218,
      "pol": 2219,
      "##ax": 2220,
      "##ments": 2221,
      "produc": 2222,
      "##tern": 2223,
      "expression": 2224,
      "op": 2225,
      "##ior": 2226,
      "model": 2227,
      "##osp": 2228,
      "risk": 2229,
      "##entif": 2230,
      "use": 2231,
      "supp": 2232,
      "##her": 2233,
      "form": 2234,
      "conc": 2235,
      "##ne": 2236,
      "blo": 2237,
      "well": 2238,
      "activity": 2239,
      "##itive": 2240,
      "##adi": 2241,
      "blood": 2242,
      "##ew": 2243,
      "obser": 2244,
      "adm": 2245,
      "##rop": 2246,
      "ml": 2247,
      "##ities": 2248,
      "##ecti": 2249,
      "found": 2250,
      "##idence": 2251,
      "dem": 2252,
      "##gr": 2253,
      "##ile": 2254,
      "##ole": 2255,
      "##etic": 2256,
      "normal": 2257,
      "inhib": 2258,
      "num": 2259,
      "identif": 2260,
      "##uct": 2261,
      "##ement": 2262,
      "##ants": 2263,
      "##ane": 2264,
      "##ici": 2265,
      "##ization": 2266,
      "showed": 2267,
      "15": 2268,
      "diagn": 2269,
      "##ential": 2270,
      "##ever": 2271,
      "##row": 2272,
      "however": 2273,
      "11": 2274,
      "studies": 2275,
      "##yd": 2276,
      "determ": 2277,
      "mul": 2278,
      "left": 2279,
      "decre": 2280,
      "19": 2281,
      "##ish": 2282,
      "when": 2283,
      "sec": 2284,
      "pot": 2285,
      "effect": 2286,
      "##tig": 2287,
      "##ute": 2288,
      "most": 2289,
      "##ently": 2290,
      "syn": 2291,
      "##ple": 2292,
      "##let": 2293,
      "post": 2294,
      "##val": 2295,
      "##ectively": 2296,
      "ep": 2297,
      "hosp": 2298,
      "age": 2299,
      "immun": 2300,
      "effects": 2301,
      "##oid": 2302,
      "##di": 2303,
      "exper": 2304,
      "years": 2305,
      "##ors": 2306,
      "hospital": 2307,
      "partic": 2308,
      "##ugh": 2309,
      "##ale": 2310,
      "impro": 2311,
      "intr": 2312,
      "examin": 2313,
      "##ution": 2314,
      "prov": 2315,
      "##ograph": 2316,
      "different": 2317,
      "##ology": 2318,
      "##arg": 2319,
      "based": 2320,
      "hum": 2321,
      "concentr": 2322,
      "therap": 2323,
      "##action": 2324,
      "##ural": 2325,
      "##ix": 2326,
      "##onstr": 2327,
      "##etr": 2328,
      "##ences": 2329,
      "care": 2330,
      "inves": 2331,
      "def": 2332,
      "investig": 2333,
      "sel": 2334,
      "tum": 2335,
      "response": 2336,
      "##ency": 2337,
      "higher": 2338,
      "only": 2339,
      "bl": 2340,
      "specific": 2341,
      "##ery": 2342,
      "its": 2343,
      "##erg": 2344,
      "##inal": 2345,
      "##ined": 2346,
      "em": 2347,
      "val": 2348,
      "path": 2349,
      "##esis": 2350,
      "##ains": 2351,
      "##own": 2352,
      "ol": 2353,
      "right": 2354,
      "so": 2355,
      "00": 2356,
      "rate": 2357,
      "into": 2358,
      "##ren": 2359,
      "##art": 2360,
      "our": 2361,
      "ap": 2362,
      "##ron": 2363,
      "cancer": 2364,
      "corre": 2365,
      "##ily": 2366,
      "##oph": 2367,
      "##gh": 2368,
      "##ions": 2369,
      "ext": 2370,
      "14": 2371,
      "##amm": 2372,
      "pred": 2373,
      "##ability": 2374,
      "total": 2375,
      "##av": 2376,
      "##til": 2377,
      "three": 2378,
      "surg": 2379,
      "wor": 2380,
      "##ited": 2381,
      "acid": 2382,
      "char": 2383,
      "##ible": 2384,
      "his": 2385,
      "hem": 2386,
      "gener": 2387,
      "pat": 2388,
      "##use": 2389,
      "new": 2390,
      "cal": 2391,
      "13": 2392,
      "##ds": 2393,
      "neu": 2394,
      "loc": 2395,
      "groups": 2396,
      "30": 2397,
      "number": 2398,
      "##ark": 2399,
      "##res": 2400,
      "##lear": 2401,
      "##omen": 2402,
      "##ok": 2403,
      "##rough": 2404,
      "condition": 2405,
      "##ood": 2406,
      "##its": 2407,
      "##aining": 2408,
      "fur": 2409,
      "pul": 2410,
      "flu": 2411,
      "changes": 2412,
      "cardi": 2413,
      "appro": 2414,
      "##ang": 2415,
      "finding": 2416,
      "##round": 2417,
      "##ung": 2418,
      "occ": 2419,
      "##omy": 2420,
      "sam": 2421,
      "##tical": 2422,
      "induced": 2423,
      "month": 2424,
      "lower": 2425,
      "##ize": 2426,
      "observed": 2427,
      "##ature": 2428,
      "back": 2429,
      "who": 2430,
      "##ks": 2431,
      "contin": 2432,
      "24": 2433,
      "##asc": 2434,
      "ox": 2435,
      "name": 2436,
      "##echan": 2437,
      "mean": 2438,
      "##af": 2439,
      "##ured": 2440,
      "related": 2441,
      "fir": 2442,
      "demonstr": 2443,
      "day": 2444,
      "inj": 2445,
      "##les": 2446,
      "repor": 2447,
      "del": 2448,
      "##asm": 2449,
      "sens": 2450,
      "##ten": 2451,
      "##view": 2452,
      "tre": 2453,
      "bas": 2454,
      "25": 2455,
      "human": 2456,
      "##arge": 2457,
      "##par": 2458,
      "term": 2459,
      "##oma": 2460,
      "through": 2461,
      "addition": 2462,
      "lik": 2463,
      "child": 2464,
      "character": 2465,
      "tiss": 2466,
      "mechan": 2467,
      "##vers": 2468,
      "##cop": 2469,
      "phys": 2470,
      "mo": 2471,
      "##tid": 2472,
      "pain": 2473,
      "##ilar": 2474,
      "such": 2475,
      "##ived": 2476,
      "##cep": 2477,
      "##cin": 2478,
      "struct": 2479,
      "type": 2480,
      "import": 2481,
      "##ats": 2482,
      "##imal": 2483,
      "mm": 2484,
      "respectively": 2485,
      "100": 2486,
      "95": 2487,
      "process": 2488,
      "##eter": 2489,
      "micro": 2490,
      "medi": 2491,
      "##lex": 2492,
      "conf": 2493,
      "first": 2494,
      "cases": 2495,
      "##tained": 2496,
      "need": 2497,
      "##ough": 2498,
      "hyper": 2499,
      "##echn": 2500,
      "##ps": 2501,
      "mol": 2502,
      "within": 2503,
      "obj": 2504,
      "findings": 2505,
      "increase": 2506,
      "il": 2507,
      "18": 2508,
      "tes": 2509,
      "those": 2510,
      "among": 2511,
      "ct": 2512,
      "main": 2513,
      "radi": 2514,
      "##air": 2515,
      "##ould": 2516,
      "pe": 2517,
      "techn": 2518,
      "grow": 2519,
      "##ulated": 2520,
      "kn": 2521,
      "aff": 2522,
      "##fore": 2523,
      "disc": 2524,
      "##iqu": 2525,
      "##ental": 2526,
      "##uction": 2527,
      "##led": 2528,
      "16": 2529,
      "performed": 2530,
      "gene": 2531,
      "correl": 2532,
      "50": 2533,
      "##osed": 2534,
      "pm": 2535,
      "##roph": 2536,
      "multi": 2537,
      "small": 2538,
      "conclusions": 2539,
      "mem": 2540,
      "without": 2541,
      "##vious": 2542,
      "pop": 2543,
      "prim": 2544,
      "##eptor": 2545,
      "factors": 2546,
      "cd": 2547,
      "##tit": 2548,
      "drug": 2549,
      "peri": 2550,
      "##och": 2551,
      "ear": 2552,
      "##ef": 2553,
      "development": 2554,
      "wee": 2555,
      "requ": 2556,
      "fre": 2557,
      "##ade": 2558,
      "##osph": 2559,
      "curr": 2560,
      "ma": 2561,
      "##ful": 2562,
      "long": 2563,
      "prop": 2564,
      "prob": 2565,
      "##endent": 2566,
      "could": 2567,
      "##ness": 2568,
      "##tory": 2569,
      "##ov": 2570,
      "subj": 2571,
      "lung": 2572,
      "receptor": 2573,
      "pattern": 2574,
      "stim": 2575,
      "sugges": 2576,
      "##ivid": 2577,
      "invol": 2578,
      "outc": 2579,
      "do": 2580,
      "tem": 2581,
      "##otic": 2582,
      "sol": 2583,
      "lim": 2584,
      "infection": 2585,
      "lab": 2586,
      "ps": 2587,
      "predic": 2588,
      "##atus": 2589,
      "hyd": 2590,
      "arter": 2591,
      "previous": 2592,
      "similar": 2593,
      "##ascular": 2594,
      "##ders": 2595,
      "coll": 2596,
      "ii": 2597,
      "my": 2598,
      "test": 2599,
      "##ody": 2600,
      "##ced": 2601,
      "05": 2602,
      "200": 2603,
      "potential": 2604,
      "cyt": 2605,
      "dose": 2606,
      "mus": 2607,
      "ret": 2608,
      "days": 2609,
      "fib": 2610,
      "line": 2611,
      "antib": 2612,
      "hr": 2613,
      "less": 2614,
      "##ines": 2615,
      "##tom": 2616,
      "while": 2617,
      "prog": 2618,
      "kg": 2619,
      "##ice": 2620,
      "evidence": 2621,
      "review": 2622,
      "##ex": 2623,
      "frequ": 2624,
      "##ational": 2625,
      "role": 2626,
      "sin": 2627,
      "poss": 2628,
      "vis": 2629,
      "##ues": 2630,
      "neg": 2631,
      "where": 2632,
      "did": 2633,
      "rece": 2634,
      "##ages": 2635,
      "cap": 2636,
      "##iven": 2637,
      "vol": 2638,
      "##ider": 2639,
      "##ake": 2640,
      "sever": 2641,
      "acute": 2642,
      "treated": 2643,
      "positive": 2644,
      "##bin": 2645,
      "##ground": 2646,
      "will": 2647,
      "calc": 2648,
      "chest": 2649,
      "each": 2650,
      "##istic": 2651,
      "molec": 2652,
      "some": 2653,
      "background": 2654,
      "##over": 2655,
      "experim": 2656,
      "##tivity": 2657,
      "##ival": 2658,
      "sk": 2659,
      "medical": 2660,
      "therapy": 2661,
      "aim": 2662,
      "extr": 2663,
      "##oper": 2664,
      "##gan": 2665,
      "important": 2666,
      "period": 2667,
      "##ension": 2668,
      "##ha": 2669,
      "including": 2670,
      "bec": 2671,
      "appear": 2672,
      "av": 2673,
      "##olic": 2674,
      "prot": 2675,
      "tub": 2676,
      "##ether": 2677,
      "##ock": 2678,
      "ran": 2679,
      "women": 2680,
      "set": 2681,
      "17": 2682,
      "##ateral": 2683,
      "status": 2684,
      "further": 2685,
      "bin": 2686,
      "children": 2687,
      "due": 2688,
      "months": 2689,
      "ur": 2690,
      "identified": 2691,
      "##orph": 2692,
      "40": 2693,
      "abs": 2694,
      "iv": 2695,
      "pur": 2696,
      "report": 2697,
      "if": 2698,
      "os": 2699,
      "##ms": 2700,
      "##ason": 2701,
      "mechanism": 2702,
      "##eng": 2703,
      "##omes": 2704,
      "cult": 2705,
      "great": 2706,
      "##vention": 2707,
      "press": 2708,
      "plan": 2709,
      "symp": 2710,
      "##ning": 2711,
      "diagnosis": 2712,
      "growth": 2713,
      "sequ": 2714,
      "ul": 2715,
      "contrast": 2716,
      "mal": 2717,
      "fam": 2718,
      "decreased": 2719,
      "monitor": 2720,
      "second": 2721,
      "##ise": 2722,
      "fl": 2723,
      "tumor": 2724,
      "abd": 2725,
      "assessment": 2726,
      "fem": 2727,
      "reported": 2728,
      "initi": 2729,
      "consider": 2730,
      "ci": 2731,
      "cm": 2732,
      "##ick": 2733,
      "##veal": 2734,
      "##up": 2735,
      "ele": 2736,
      "##ty": 2737,
      "##ately": 2738,
      "four": 2739,
      "##istr": 2740,
      "##emia": 2741,
      "er": 2742,
      "mr": 2743,
      "plasm": 2744,
      "##ening": 2745,
      "##ores": 2746,
      "##int": 2747,
      "vs": 2748,
      "reveal": 2749,
      "##oh": 2750,
      "obtained": 2751,
      "tissue": 2752,
      "sampl": 2753,
      "work": 2754,
      "##gest": 2755,
      "##ross": 2756,
      "sing": 2757,
      "old": 2758,
      "##ving": 2759,
      "mice": 2760,
      "cy": 2761,
      "prom": 2762,
      "##ically": 2763,
      "##ire": 2764,
      "##itis": 2765,
      "they": 2766,
      "surv": 2767,
      "fail": 2768,
      "##ymph": 2769,
      "suggest": 2770,
      "vir": 2771,
      "chem": 2772,
      "vit": 2773,
      "##crib": 2774,
      "##jor": 2775,
      "mark": 2776,
      "individ": 2777,
      "major": 2778,
      "01": 2779,
      "##cle": 2780,
      "##med": 2781,
      "clear": 2782,
      "ren": 2783,
      "lymph": 2784,
      "measure": 2785,
      "##ication": 2786,
      "techniqu": 2787,
      "symptom": 2788,
      "ben": 2789,
      "##pha": 2790,
      "common": 2791,
      "differences": 2792,
      "mut": 2793,
      "admin": 2794,
      "##atis": 2795,
      "##ission": 2796,
      "##iel": 2797,
      "da": 2798,
      "hour": 2799,
      "gluc": 2800,
      "complex": 2801,
      "particip": 2802,
      "##otyp": 2803,
      "dire": 2804,
      "##ality": 2805,
      "##ulin": 2806,
      "design": 2807,
      "##az": 2808,
      "rh": 2809,
      "##amine": 2810,
      "given": 2811,
      "change": 2812,
      "reduced": 2813,
      "surgery": 2814,
      "following": 2815,
      "qual": 2816,
      "isol": 2817,
      "individual": 2818,
      "single": 2819,
      "pers": 2820,
      "distr": 2821,
      "inform": 2822,
      "dna": 2823,
      "##iter": 2824,
      "##are": 2825,
      "chron": 2826,
      "##ric": 2827,
      "##zym": 2828,
      "##yz": 2829,
      "bil": 2830,
      "mater": 2831,
      "history": 2832,
      "improve": 2833,
      "##ocyt": 2834,
      "##ified": 2835,
      "60": 2836,
      "21": 2837,
      "primary": 2838,
      "##entric": 2839,
      "ed": 2840,
      "surf": 2841,
      "gu": 2842,
      "objective": 2843,
      "lip": 2844,
      "##ished": 2845,
      "phosph": 2846,
      "proced": 2847,
      "metab": 2848,
      "serum": 2849,
      "early": 2850,
      "##ety": 2851,
      "provid": 2852,
      "rats": 2853,
      "##lications": 2854,
      "presence": 2855,
      "about": 2856,
      "mat": 2857,
      "rati": 2858,
      "##ites": 2859,
      "##acy": 2860,
      "size": 2861,
      "approach": 2862,
      "alth": 2863,
      "beha": 2864,
      "although": 2865,
      "##amic": 2866,
      "##ressed": 2867,
      "subjects": 2868,
      "liver": 2869,
      "##crip": 2870,
      "flow": 2871,
      "caus": 2872,
      "##ie": 2873,
      "heart": 2874,
      "organ": 2875,
      "measured": 2876,
      "##urs": 2877,
      "large": 2878,
      "influ": 2879,
      "diff": 2880,
      "##monary": 2881,
      "her": 2882,
      "##ves": 2883,
      "behavi": 2884,
      "nuc": 2885,
      "valu": 2886,
      "range": 2887,
      "class": 2888,
      "support": 2889,
      "chronic": 2890,
      "hep": 2891,
      "enh": 2892,
      "complet": 2893,
      "##tered": 2894,
      "ang": 2895,
      "##eth": 2896,
      "lif": 2897,
      "##rh": 2898,
      "stable": 2899,
      "assessed": 2900,
      "22": 2901,
      "mass": 2902,
      "plac": 2903,
      "requir": 2904,
      "population": 2905,
      "examination": 2906,
      "##aneous": 2907,
      "##earch": 2908,
      "##ials": 2909,
      "research": 2910,
      "ple": 2911,
      "hydro": 2912,
      "##ither": 2913,
      "ic": 2914,
      "pressure": 2915,
      "binding": 2916,
      "##gf": 2917,
      "brain": 2918,
      "should": 2919,
      "free": 2920,
      "sl": 2921,
      "bre": 2922,
      "dl": 2923,
      "##ength": 2924,
      "coun": 2925,
      "concentrations": 2926,
      "##atal": 2927,
      "##hip": 2928,
      "negative": 2929,
      "reason": 2930,
      "##ink": 2931,
      "##aging": 2932,
      "species": 2933,
      "les": 2934,
      "##ounds": 2935,
      "concentration": 2936,
      "##lamm": 2937,
      "201": 2938,
      "lead": 2939,
      "##ins": 2940,
      "ref": 2941,
      "again": 2942,
      "current": 2943,
      "bp": 2944,
      "vi": 2945,
      "##vere": 2946,
      "she": 2947,
      "##arm": 2948,
      "nec": 2949,
      "weight": 2950,
      "##oles": 2951,
      "samples": 2952,
      "##ography": 2953,
      "resist": 2954,
      "stress": 2955,
      "enzym": 2956,
      "expl": 2957,
      "##uss": 2958,
      "##ord": 2959,
      "##por": 2960,
      "inhibitor": 2961,
      "survival": 2962,
      "renal": 2963,
      "signal": 2964,
      "stand": 2965,
      "##ogn": 2966,
      "neuro": 2967,
      "prol": 2968,
      "##iratory": 2969,
      "fluid": 2970,
      "included": 2971,
      "seen": 2972,
      "conditions": 2973,
      "##asing": 2974,
      "analyz": 2975,
      "genes": 2976,
      "##ateg": 2977,
      "adv": 2978,
      "body": 2979,
      "comparis": 2980,
      "##ties": 2981,
      "plasma": 2982,
      "synth": 2983,
      "region": 2984,
      "##ause": 2985,
      "describ": 2986,
      "beta": 2987,
      "evaluated": 2988,
      "##of": 2989,
      "001": 2990,
      "demonstrated": 2991,
      "revealed": 2992,
      "##erc": 2993,
      "oper": 2994,
      "multiple": 2995,
      "prior": 2996,
      "##osure": 2997,
      "proteins": 2998,
      "alpha": 2999,
      "##neum": 3000,
      "order": 3001,
      "##oss": 3002,
      "##ych": 3003,
      "pulmonary": 3004,
      "##actions": 3005,
      "evaluate": 3006,
      "##o2": 3007,
      "##vir": 3008,
      "investigated": 3009,
      "family": 3010,
      "developed": 3011,
      "##cs": 3012,
      "##ensity": 3013,
      "diab": 3014,
      "dependent": 3015,
      "lo": 3016,
      "ir": 3017,
      "case": 3018,
      "sus": 3019,
      "##operative": 3020,
      "23": 3021,
      "ro": 3022,
      "before": 3023,
      "mild": 3024,
      "##sp": 3025,
      "##tric": 3026,
      "##arget": 3027,
      "aut": 3028,
      "studied": 3029,
      "inflamm": 3030,
      "any": 3031,
      "estim": 3032,
      "##roscop": 3033,
      "several": 3034,
      "quality": 3035,
      "##tis": 3036,
      "rates": 3037,
      "pneum": 3038,
      "animal": 3039,
      "dim": 3040,
      "injur": 3041,
      "target": 3042,
      "##yth": 3043,
      "medic": 3044,
      "standard": 3045,
      "##cent": 3046,
      "volum": 3047,
      "information": 3048,
      "##ory": 3049,
      "phen": 3050,
      "membr": 3051,
      "likely": 3052,
      "bone": 3053,
      "greater": 3054,
      "determine": 3055,
      "values": 3056,
      "deg": 3057,
      "ventric": 3058,
      "ve": 3059,
      "##eding": 3060,
      "examined": 3061,
      "tol": 3062,
      "known": 3063,
      "whether": 3064,
      "##emic": 3065,
      "weeks": 3066,
      "##ensive": 3067,
      "equ": 3068,
      "failure": 3069,
      "##roduc": 3070,
      "28": 3071,
      "hel": 3072,
      "##tain": 3073,
      "##nal": 3074,
      "relations": 3075,
      "sch": 3076,
      "##anced": 3077,
      "adj": 3078,
      "conduc": 3079,
      "##ield": 3080,
      "disor": 3081,
      "est": 3082,
      "##ended": 3083,
      "prof": 3084,
      "subs": 3085,
      "local": 3086,
      "recom": 3087,
      "same": 3088,
      "surface": 3089,
      "respiratory": 3090,
      "##lyc": 3091,
      "quan": 3092,
      "##erv": 3093,
      "cir": 3094,
      "param": 3095,
      "either": 3096,
      "35": 3097,
      "##ull": 3098,
      "##andom": 3099,
      "elect": 3100,
      "determined": 3101,
      "possible": 3102,
      "##onal": 3103,
      "life": 3104,
      "thus": 3105,
      "ratio": 3106,
      "water": 3107,
      "effective": 3108,
      "##ynamic": 3109,
      "functional": 3110,
      "noted": 3111,
      "commun": 3112,
      "manag": 3113,
      "mit": 3114,
      "##tinal": 3115,
      "##iver": 3116,
      "##eptid": 3117,
      "##ode": 3118,
      "random": 3119,
      "##way": 3120,
      "te": 3121,
      "26": 3122,
      "general": 3123,
      "##asis": 3124,
      "air": 3125,
      "##ification": 3126,
      "der": 3127,
      "interval": 3128,
      "purp": 3129,
      "neur": 3130,
      "occurr": 3131,
      "final": 3132,
      "symptoms": 3133,
      "ques": 3134,
      "overall": 3135,
      "reduc": 3136,
      "resid": 3137,
      "ec": 3138,
      "cardiac": 3139,
      "##ral": 3140,
      "moder": 3141,
      "comparison": 3142,
      "daily": 3143,
      "unders": 3144,
      "##terior": 3145,
      "relationship": 3146,
      "received": 3147,
      "skin": 3148,
      "active": 3149,
      "ms": 3150,
      "max": 3151,
      "phase": 3152,
      "sw": 3153,
      "prac": 3154,
      "here": 3155,
      "90": 3156,
      "##atively": 3157,
      "diet": 3158,
      "dys": 3159,
      "80": 3160,
      "proper": 3161,
      "##verse": 3162,
      "asp": 3163,
      "glucose": 3164,
      "repres": 3165,
      "since": 3166,
      "polym": 3167,
      "characteristic": 3168,
      "exposure": 3169,
      "##ision": 3170,
      "##red": 3171,
      "discuss": 3172,
      "transfer": 3173,
      "##uth": 3174,
      "##orb": 3175,
      "tube": 3176,
      "loss": 3177,
      "bacter": 3178,
      "##istent": 3179,
      "muc": 3180,
      "mort": 3181,
      "activation": 3182,
      "##lement": 3183,
      "##rem": 3184,
      "contrib": 3185,
      "remains": 3186,
      "provide": 3187,
      "molecular": 3188,
      "##tif": 3189,
      "foc": 3190,
      "emp": 3191,
      "mid": 3192,
      "area": 3193,
      "##eters": 3194,
      "27": 3195,
      "underst": 3196,
      "severe": 3197,
      "pa": 3198,
      "##opl": 3199,
      "##ian": 3200,
      "##ool": 3201,
      "whereas": 3202,
      "32": 3203,
      "difference": 3204,
      "hypert": 3205,
      "sal": 3206,
      "##viron": 3207,
      "intra": 3208,
      "##icient": 3209,
      "continue": 3210,
      "detected": 3211,
      "then": 3212,
      "sex": 3213,
      "mortality": 3214,
      "elev": 3215,
      "indep": 3216,
      "insulin": 3217,
      "##omic": 3218,
      "hist": 3219,
      "##ocytes": 3220,
      "##itation": 3221,
      "##osition": 3222,
      "vers": 3223,
      "000": 3224,
      "because": 3225,
      "##ostic": 3226,
      "secre": 3227,
      "tra": 3228,
      "six": 3229,
      "##ulations": 3230,
      "very": 3231,
      "add": 3232,
      "toler": 3233,
      "confir": 3234,
      "chrom": 3235,
      "45": 3236,
      "elec": 3237,
      "strong": 3238,
      "##ke": 3239,
      "##otherap": 3240,
      "avail": 3241,
      "##onic": 3242,
      "controls": 3243,
      "##ption": 3244,
      "distrib": 3245,
      "36": 3246,
      "dom": 3247,
      "statis": 3248,
      "vitro": 3249,
      "##ands": 3250,
      "##itivity": 3251,
      "##eration": 3252,
      "amp": 3253,
      "improved": 3254,
      "##lication": 3255,
      "production": 3256,
      "##ude": 3257,
      "##ient": 3258,
      "increasing": 3259,
      "action": 3260,
      "surgical": 3261,
      "psych": 3262,
      "atten": 3263,
      "exc": 3264,
      "against": 3265,
      "##ists": 3266,
      "##abl": 3267,
      "ach": 3268,
      "association": 3269,
      "head": 3270,
      "purpose": 3271,
      "02": 3272,
      "##opath": 3273,
      "muscle": 3274,
      "pub": 3275,
      "##cept": 3276,
      "scre": 3277,
      "hours": 3278,
      "short": 3279,
      "##icity": 3280,
      "reduction": 3281,
      "super": 3282,
      "many": 3283,
      "rr": 3284,
      "being": 3285,
      "##aw": 3286,
      "##iving": 3287,
      "##istration": 3288,
      "hypoth": 3289,
      "combin": 3290,
      "direct": 3291,
      "##eline": 3292,
      "continu": 3293,
      "cent": 3294,
      "##ema": 3295,
      "five": 3296,
      "##ule": 3297,
      "artery": 3298,
      "##equ": 3299,
      "##ocial": 3300,
      "involved": 3301,
      "##ellular": 3302,
      "##verage": 3303,
      "part": 3304,
      "centr": 3305,
      "##gram": 3306,
      "outcomes": 3307,
      "environ": 3308,
      "various": 3309,
      "men": 3310,
      "off": 3311,
      "site": 3312,
      "29": 3313,
      "##ules": 3314,
      "##ae": 3315,
      "male": 3316,
      "physical": 3317,
      "70": 3318,
      "technique": 3319,
      "outcome": 3320,
      "shown": 3321,
      "transcrip": 3322,
      "##ometr": 3323,
      "recent": 3324,
      "tox": 3325,
      "compon": 3326,
      "31": 3327,
      "att": 3328,
      "responses": 3329,
      "temper": 3330,
      "imaging": 3331,
      "good": 3332,
      "doc": 3333,
      "##gn": 3334,
      "genetic": 3335,
      "management": 3336,
      "soft": 3337,
      "##anged": 3338,
      "##ectiv": 3339,
      "formation": 3340,
      "participants": 3341,
      "##active": 3342,
      "##ward": 3343,
      "nucle": 3344,
      "##uted": 3345,
      "injury": 3346,
      "performance": 3347,
      "abn": 3348,
      "systems": 3349,
      "volume": 3350,
      "stage": 3351,
      "##yr": 3352,
      "experi": 3353,
      "##ortic": 3354,
      "analyzed": 3355,
      "success": 3356,
      "##eu": 3357,
      "pc": 3358,
      "##ised": 3359,
      "##old": 3360,
      "##xim": 3361,
      "structure": 3362,
      "decrease": 3363,
      "##rome": 3364,
      "##elial": 3365,
      "identify": 3366,
      "##ording": 3367,
      "preval": 3368,
      "electr": 3369,
      "effusion": 3370,
      "##oses": 3371,
      "models": 3372,
      "via": 3373,
      "##ographic": 3374,
      "carb": 3375,
      "thick": 3376,
      "##otherapy": 3377,
      "##ocy": 3378,
      "##pt": 3379,
      "abnormal": 3380,
      "##uk": 3381,
      "morph": 3382,
      "membrane": 3383,
      "times": 3384,
      "bel": 3385,
      "death": 3386,
      "differenti": 3387,
      "now": 3388,
      "index": 3389,
      "##reg": 3390,
      "self": 3391,
      "position": 3392,
      "##ey": 3393,
      "37": 3394,
      "oxid": 3395,
      "nm": 3396,
      "cath": 3397,
      "##ops": 3398,
      "##line": 3399,
      "##ination": 3400,
      "poor": 3401,
      "##ount": 3402,
      "33": 3403,
      "##lor": 3404,
      "##ocard": 3405,
      "##app": 3406,
      "particular": 3407,
      "setting": 3408,
      "##day": 3409,
      "place": 3410,
      "enc": 3411,
      "vascular": 3412,
      "strateg": 3413,
      "et": 3414,
      "##ably": 3415,
      "therefore": 3416,
      "magn": 3417,
      "tak": 3418,
      "establ": 3419,
      "03": 3420,
      "##ologic": 3421,
      "##amp": 3422,
      "metabol": 3423,
      "mechanisms": 3424,
      "parameters": 3425,
      "procedure": 3426,
      "carcin": 3427,
      "value": 3428,
      "rap": 3429,
      "like": 3430,
      "state": 3431,
      "cycl": 3432,
      "gas": 3433,
      "baseline": 3434,
      "##elet": 3435,
      "mac": 3436,
      "deliver": 3437,
      "circ": 3438,
      "##ochem": 3439,
      "frequency": 3440,
      "##als": 3441,
      "##ns": 3442,
      "04": 3443,
      "nan": 3444,
      "##bl": 3445,
      "proble": 3446,
      "ventricular": 3447,
      "dist": 3448,
      "##ust": 3449,
      "stimul": 3450,
      "previously": 3451,
      "go": 3452,
      "##vent": 3453,
      "48": 3454,
      "viv": 3455,
      "oral": 3456,
      "administration": 3457,
      "correlation": 3458,
      "block": 3459,
      "followed": 3460,
      "behavior": 3461,
      "##eutic": 3462,
      "##etes": 3463,
      "regul": 3464,
      "##wor": 3465,
      "down": 3466,
      "virus": 3467,
      "##iotic": 3468,
      "##ene": 3469,
      "##iciency": 3470,
      "cv": 3471,
      "properties": 3472,
      "visual": 3473,
      "##olution": 3474,
      "better": 3475,
      "ver": 3476,
      "##anding": 3477,
      "nit": 3478,
      "environment": 3479,
      "evaluation": 3480,
      "social": 3481,
      "scale": 3482,
      "ng": 3483,
      "lesions": 3484,
      "##eric": 3485,
      "fat": 3486,
      "pap": 3487,
      "breast": 3488,
      "synd": 3489,
      "prec": 3490,
      "eth": 3491,
      "##bs": 3492,
      "##atures": 3493,
      "##plant": 3494,
      "healthy": 3495,
      "vivo": 3496,
      "resistance": 3497,
      "available": 3498,
      "result": 3499,
      "199": 3500,
      "##ysis": 3501,
      "rele": 3502,
      "required": 3503,
      "atr": 3504,
      "sensitivity": 3505,
      "achie": 3506,
      "repe": 3507,
      "##ont": 3508,
      "week": 3509,
      "remo": 3510,
      "ey": 3511,
      "saf": 3512,
      "cross": 3513,
      "fil": 3514,
      "release": 3515,
      "##vic": 3516,
      "allow": 3517,
      "indicate": 3518,
      "cere": 3519,
      "events": 3520,
      "disch": 3521,
      "34": 3522,
      "##ygen": 3523,
      "##li": 3524,
      "bm": 3525,
      "approxim": 3526,
      "investigate": 3527,
      "novel": 3528,
      "incidence": 3529,
      "admit": 3530,
      "##tically": 3531,
      "##ergy": 3532,
      "characteristics": 3533,
      "##tex": 3534,
      "vac": 3535,
      "refer": 3536,
      "kin": 3537,
      "##bc": 3538,
      "75": 3539,
      "moderate": 3540,
      "##tial": 3541,
      "phot": 3542,
      "benef": 3543,
      "##ancy": 3544,
      "##vice": 3545,
      "accur": 3546,
      "##tegr": 3547,
      "cop": 3548,
      "extrac": 3549,
      "pregn": 3550,
      "##ending": 3551,
      "nut": 3552,
      "induc": 3553,
      "star": 3554,
      "question": 3555,
      "tested": 3556,
      "amin": 3557,
      "cre": 3558,
      "intervention": 3559,
      "percent": 3560,
      "diabetes": 3561,
      "ultr": 3562,
      "animals": 3563,
      "peptid": 3564,
      "urine": 3565,
      "optim": 3566,
      "##iat": 3567,
      "##ectomy": 3568,
      "##ually": 3569,
      "fract": 3570,
      "hiv": 3571,
      "cp": 3572,
      "inhibition": 3573,
      "made": 3574,
      "##ner": 3575,
      "##odies": 3576,
      "impair": 3577,
      "port": 3578,
      "##urse": 3579,
      "surve": 3580,
      "assay": 3581,
      "conducted": 3582,
      "rapid": 3583,
      "considered": 3584,
      "central": 3585,
      "sour": 3586,
      "##ulf": 3587,
      "##opt": 3588,
      "##els": 3589,
      "valve": 3590,
      "ax": 3591,
      "complications": 3592,
      "prevalence": 3593,
      "##vement": 3594,
      "detection": 3595,
      "aortic": 3596,
      "comb": 3597,
      "ra": 3598,
      "would": 3599,
      "dise": 3600,
      "enzyme": 3601,
      "score": 3602,
      "##ouse": 3603,
      "hom": 3604,
      "sample": 3605,
      "##lied": 3606,
      "shif": 3607,
      "metast": 3608,
      "##bp": 3609,
      "relative": 3610,
      "female": 3611,
      "presented": 3612,
      "effic": 3613,
      "therapeutic": 3614,
      "dop": 3615,
      "tab": 3616,
      "link": 3617,
      "##ces": 3618,
      "reaction": 3619,
      "median": 3620,
      "culture": 3621,
      "perip": 3622,
      "average": 3623,
      "las": 3624,
      "mediated": 3625,
      "isolated": 3626,
      "measures": 3627,
      "wall": 3628,
      "recomm": 3629,
      "##ythm": 3630,
      "pd": 3631,
      "temperature": 3632,
      "##inary": 3633,
      "##ogenic": 3634,
      "initial": 3635,
      "experimental": 3636,
      "exhib": 3637,
      "dil": 3638,
      "sle": 3639,
      "prepar": 3640,
      "##ters": 3641,
      "underw": 3642,
      "##ogenesis": 3643,
      "analyses": 3644,
      "55": 3645,
      "prolif": 3646,
      "38": 3647,
      "mrna": 3648,
      "##ances": 3649,
      "length": 3650,
      "##ressive": 3651,
      "larg": 3652,
      "##roc": 3653,
      "##ides": 3654,
      "##rogen": 3655,
      "transplant": 3656,
      "individuals": 3657,
      "##mit": 3658,
      "underwent": 3659,
      "coron": 3660,
      "inflammatory": 3661,
      "highly": 3662,
      "home": 3663,
      "independent": 3664,
      "according": 3665,
      "rat": 3666,
      "##tle": 3667,
      "glyc": 3668,
      "integr": 3669,
      "sites": 3670,
      "recurr": 3671,
      "##ially": 3672,
      "##astic": 3673,
      "expressed": 3674,
      "##tine": 3675,
      "containing": 3676,
      "diseases": 3677,
      "bal": 3678,
      "angi": 3679,
      "indicated": 3680,
      "impact": 3681,
      "##ortion": 3682,
      "##omp": 3683,
      "syndrome": 3684,
      "areas": 3685,
      "##otype": 3686,
      "thir": 3687,
      "##iological": 3688,
      "##therm": 3689,
      "throm": 3690,
      "pharm": 3691,
      "##go": 3692,
      "oste": 3693,
      "##ids": 3694,
      "##till": 3695,
      "cause": 3696,
      "types": 3697,
      "density": 3698,
      "##ove": 3699,
      "injection": 3700,
      "extrem": 3701,
      "intrac": 3702,
      "##lob": 3703,
      "admission": 3704,
      "combination": 3705,
      "correlated": 3706,
      "##ylation": 3707,
      "last": 3708,
      "full": 3709,
      "distribution": 3710,
      "derived": 3711,
      "##urn": 3712,
      "isch": 3713,
      "applied": 3714,
      "least": 3715,
      "elevated": 3716,
      "net": 3717,
      "##ind": 3718,
      "approximately": 3719,
      "ill": 3720,
      "##resp": 3721,
      "represent": 3722,
      "subst": 3723,
      "efficacy": 3724,
      "field": 3725,
      "##inc": 3726,
      "sequence": 3727,
      "valid": 3728,
      "recover": 3729,
      "needed": 3730,
      "cs": 3731,
      "##hyd": 3732,
      "##eds": 3733,
      "poly": 3734,
      "##ibility": 3735,
      "ability": 3736,
      "secondary": 3737,
      "limited": 3738,
      "##ave": 3739,
      "##yro": 3740,
      "caused": 3741,
      "##aps": 3742,
      "light": 3743,
      "them": 3744,
      "invas": 3745,
      "##pr": 3746,
      "ble": 3747,
      "##ovascular": 3748,
      "coronary": 3749,
      "edema": 3750,
      "##mg": 3751,
      "pleural": 3752,
      "influence": 3753,
      "subse": 3754,
      "even": 3755,
      "oxygen": 3756,
      "42": 3757,
      "energy": 3758,
      "acet": 3759,
      "##pec": 3760,
      "consistent": 3761,
      "peripher": 3762,
      "##ious": 3763,
      "diffic": 3764,
      "##iting": 3765,
      "focus": 3766,
      "##medi": 3767,
      "rad": 3768,
      "regression": 3769,
      "impl": 3770,
      "##pper": 3771,
      "mar": 3772,
      "##itu": 3773,
      "program": 3774,
      "##lation": 3775,
      "apopt": 3776,
      "content": 3777,
      "drugs": 3778,
      "##ales": 3779,
      "adult": 3780,
      "nor": 3781,
      "smok": 3782,
      "know": 3783,
      "mc": 3784,
      "##ones": 3785,
      "complete": 3786,
      "##ropri": 3787,
      "cc": 3788,
      "##onia": 3789,
      "concer": 3790,
      "above": 3791,
      "produced": 3792,
      "additional": 3793,
      "sod": 3794,
      "diagnostic": 3795,
      "np": 3796,
      "##lying": 3797,
      "65": 3798,
      "cur": 3799,
      "few": 3800,
      "versus": 3801,
      "upper": 3802,
      "subsequ": 3803,
      "##vant": 3804,
      "##ominal": 3805,
      "##abil": 3806,
      "practi": 3807,
      "tablet": 3808,
      "still": 3809,
      "cri": 3810,
      "##bral": 3811,
      "##terol": 3812,
      "orig": 3813,
      "tissues": 3814,
      "##roscopy": 3815,
      "##enced": 3816,
      "##oscop": 3817,
      "##imum": 3818,
      "kid": 3819,
      "lines": 3820,
      "tumors": 3821,
      "impression": 3822,
      "might": 3823,
      "dam": 3824,
      "##reath": 3825,
      "hc": 3826,
      "demonstrate": 3827,
      "##rosp": 3828,
      "99": 3829,
      "##fusion": 3830,
      "exam": 3831,
      "kidne": 3832,
      "panc": 3833,
      "food": 3834,
      "md": 3835,
      "quantit": 3836,
      "##uble": 3837,
      "sinus": 3838,
      "##utes": 3839,
      "section": 3840,
      "introduc": 3841,
      "discharge": 3842,
      "measurements": 3843,
      "controlled": 3844,
      "stimulation": 3845,
      "##ables": 3846,
      "##10": 3847,
      "does": 3848,
      "heter": 3849,
      "youn": 3850,
      "useful": 3851,
      "amino": 3852,
      "aden": 3853,
      "##rees": 3854,
      "coh": 3855,
      "unc": 3856,
      "mix": 3857,
      "collected": 3858,
      "side": 3859,
      "criter": 3860,
      "##changed": 3861,
      "diss": 3862,
      "course": 3863,
      "breath": 3864,
      "play": 3865,
      "disp": 3866,
      "guid": 3867,
      "##ways": 3868,
      "thromb": 3869,
      "lateral": 3870,
      "##rition": 3871,
      "ns": 3872,
      "antibiotic": 3873,
      "##thermore": 3874,
      "furthermore": 3875,
      "young": 3876,
      "##ators": 3877,
      "##odes": 3878,
      "epid": 3879,
      "##ising": 3880,
      "emerg": 3881,
      "view": 3882,
      "##ling": 3883,
      "lig": 3884,
      "##rolog": 3885,
      "##ma": 3886,
      "##olar": 3887,
      "bir": 3888,
      "transcription": 3889,
      "##tors": 3890,
      "open": 3891,
      "colon": 3892,
      "monitoring": 3893,
      "separ": 3894,
      "##cence": 3895,
      "39": 3896,
      "adul": 3897,
      "enhanced": 3898,
      "tests": 3899,
      "##izing": 3900,
      "immune": 3901,
      "improvement": 3902,
      "sed": 3903,
      "arr": 3904,
      "lat": 3905,
      "util": 3906,
      "occurred": 3907,
      "ov": 3908,
      "scores": 3909,
      "trials": 3910,
      "activities": 3911,
      "liter": 3912,
      "##acity": 3913,
      "regions": 3914,
      "sil": 3915,
      "unchanged": 3916,
      "seg": 3917,
      "peripheral": 3918,
      "spect": 3919,
      "often": 3920,
      "degrees": 3921,
      "o2": 3922,
      "##ecting": 3923,
      "progn": 3924,
      "pp": 3925,
      "described": 3926,
      "features": 3927,
      "##istered": 3928,
      "abdominal": 3929,
      "icu": 3930,
      "observ": 3931,
      "interaction": 3932,
      "alc": 3933,
      "educ": 3934,
      "combined": 3935,
      "appropri": 3936,
      "hal": 3937,
      "##otox": 3938,
      "medications": 3939,
      "##inant": 3940,
      "duration": 3941,
      "confirmed": 3942,
      "43": 3943,
      "aw": 3944,
      "pcr": 3945,
      "##bers": 3946,
      "exerc": 3947,
      "characterized": 3948,
      "carr": 3949,
      "lit": 3950,
      "access": 3951,
      "##truc": 3952,
      "receptors": 3953,
      "chall": 3954,
      "na": 3955,
      "stool": 3956,
      "postoperative": 3957,
      "trial": 3958,
      "bs": 3959,
      "pathway": 3960,
      "##tib": 3961,
      "##tt": 3962,
      "agg": 3963,
      "hip": 3964,
      "hypertension": 3965,
      "##work": 3966,
      "delivery": 3967,
      "regulation": 3968,
      "sleep": 3969,
      "cellular": 3970,
      "comm": 3971,
      "infant": 3972,
      "ster": 3973,
      "today": 3974,
      "##otor": 3975,
      "##sh": 3976,
      "44": 3977,
      "nurs": 3978,
      "##uture": 3979,
      "ner": 3980,
      "##ytic": 3981,
      "suggested": 3982,
      "##eness": 3983,
      "patterns": 3984,
      "##ched": 3985,
      "##ele": 3986,
      "affected": 3987,
      "pancre": 3988,
      "nat": 3989,
      "##ledge": 3990,
      "hand": 3991,
      "98": 3992,
      "suggesting": 3993,
      "##uff": 3994,
      "##orrh": 3995,
      "clip": 3996,
      "##ocyte": 3997,
      "##opro": 3998,
      "successful": 3999,
      "##igr": 4000,
      "cogn": 4001,
      "calcium": 4002,
      "##rosis": 4003,
      "alcoh": 4004,
      "recogn": 4005,
      "##ache": 4006,
      "electro": 4007,
      "structures": 4008,
      "##ying": 4009,
      "experiments": 4010,
      "knowledge": 4011,
      "shift": 4012,
      "hct": 4013,
      "prost": 4014,
      "##orption": 4015,
      "resulted": 4016,
      "appears": 4017,
      "lack": 4018,
      "anterior": 4019,
      "ig": 4020,
      "able": 4021,
      "labor": 4022,
      "hy": 4023,
      "iii": 4024,
      "41": 4025,
      "bilateral": 4026,
      "peak": 4027,
      "oc": 4028,
      "across": 4029,
      "strains": 4030,
      "cat": 4031,
      "##oint": 4032,
      "images": 4033,
      "plat": 4034,
      "biom": 4035,
      "meq": 4036,
      "mir": 4037,
      "artic": 4038,
      "##vices": 4039,
      "reli": 4040,
      "products": 4041,
      "rna": 4042,
      "hemat": 4043,
      "rhythm": 4044,
      "disorders": 4045,
      "neurons": 4046,
      "##iatric": 4047,
      "increases": 4048,
      "record": 4049,
      "##nf": 4050,
      "key": 4051,
      "nutrition": 4052,
      "call": 4053,
      "##ened": 4054,
      "endoth": 4055,
      "epith": 4056,
      "##utions": 4057,
      "screening": 4058,
      "eight": 4059,
      "suggests": 4060,
      "##ert": 4061,
      "spectr": 4062,
      "slight": 4063,
      "##omas": 4064,
      "##umin": 4065,
      "synthesis": 4066,
      "depression": 4067,
      "bow": 4068,
      "venti": 4069,
      "biological": 4070,
      "cardiovascular": 4071,
      "understanding": 4072,
      "sensitive": 4073,
      "##pre": 4074,
      "criteria": 4075,
      "alter": 4076,
      "respond": 4077,
      "defined": 4078,
      "ess": 4079,
      "materials": 4080,
      "bar": 4081,
      "##ored": 4082,
      "dynamic": 4083,
      "##set": 4084,
      "##estinal": 4085,
      "displ": 4086,
      "catheter": 4087,
      "prosp": 4088,
      "##enting": 4089,
      "sodium": 4090,
      "antibody": 4091,
      "processes": 4092,
      "pharmac": 4093,
      "amount": 4094,
      "pac": 4095,
      "tool": 4096,
      "chlor": 4097,
      "lob": 4098,
      "##yc": 4099,
      "neut": 4100,
      "retrosp": 4101,
      "desp": 4102,
      "adults": 4103,
      "##ta": 4104,
      "##yroid": 4105,
      "46": 4106,
      "##ubated": 4107,
      "inhibited": 4108,
      "despite": 4109,
      "placement": 4110,
      "training": 4111,
      "##omal": 4112,
      "##aft": 4113,
      "sounds": 4114,
      "mental": 4115,
      "##king": 4116,
      "myocard": 4117,
      "mel": 4118,
      "52": 4119,
      "horm": 4120,
      "malign": 4121,
      "provided": 4122,
      "##trate": 4123,
      "selected": 4124,
      "tas": 4125,
      "outp": 4126,
      "stro": 4127,
      "##ectives": 4128,
      "hd": 4129,
      "pneumonia": 4130,
      "altern": 4131,
      "cost": 4132,
      "antigen": 4133,
      "cx": 4134,
      "##ubation": 4135,
      "##ivers": 4136,
      "##orbid": 4137,
      "carcinoma": 4138,
      "step": 4139,
      "consum": 4140,
      "ven": 4141,
      "##de": 4142,
      "antibodies": 4143,
      "##inetic": 4144,
      "##ochemical": 4145,
      "##other": 4146,
      "bowel": 4147,
      "techniques": 4148,
      "##ayed": 4149,
      "accum": 4150,
      "lay": 4151,
      "##ogene": 4152,
      "47": 4153,
      "exercise": 4154,
      "pow": 4155,
      "gi": 4156,
      "compounds": 4157,
      "72": 4158,
      "help": 4159,
      "interactions": 4160,
      "##aff": 4161,
      "practice": 4162,
      "proliferation": 4163,
      "od": 4164,
      "##ged": 4165,
      "##bo": 4166,
      "##onding": 4167,
      "lact": 4168,
      "alone": 4169,
      "recently": 4170,
      "arterial": 4171,
      "leuk": 4172,
      "metabolic": 4173,
      "load": 4174,
      "espec": 4175,
      "linear": 4176,
      "##da": 4177,
      "marked": 4178,
      "##ocol": 4179,
      "promo": 4180,
      "especially": 4181,
      "mes": 4182,
      "##esth": 4183,
      "fluores": 4184,
      "96": 4185,
      "##occ": 4186,
      "placed": 4187,
      "literature": 4188,
      "kidney": 4189,
      "cer": 4190,
      "##etal": 4191,
      "97": 4192,
      "future": 4193,
      "aged": 4194,
      "##arding": 4195,
      "point": 4196,
      "##function": 4197,
      "56": 4198,
      "color": 4199,
      "questionna": 4200,
      "difficult": 4201,
      "##onch": 4202,
      "chain": 4203,
      "strain": 4204,
      "established": 4205,
      "read": 4206,
      "corresp": 4207,
      "currently": 4208,
      "proposed": 4209,
      "indication": 4210,
      "scan": 4211,
      "07": 4212,
      "ped": 4213,
      "##12": 4214,
      "doses": 4215,
      "##kn": 4216,
      "##ii": 4217,
      "disorder": 4218,
      "toward": 4219,
      "sum": 4220,
      "mouse": 4221,
      "progression": 4222,
      "alb": 4223,
      "sulf": 4224,
      "excl": 4225,
      "54": 4226,
      "##ints": 4227,
      "apoptosis": 4228,
      "tf": 4229,
      "require": 4230,
      "##atitis": 4231,
      "##isted": 4232,
      "##ture": 4233,
      "application": 4234,
      "log": 4235,
      "hemod": 4236,
      "internal": 4237,
      "##ld": 4238,
      "sem": 4239,
      "depend": 4240,
      "##rine": 4241,
      "note": 4242,
      "discussed": 4243,
      "06": 4244,
      "ant": 4245,
      "##upl": 4246,
      "##oxid": 4247,
      "fold": 4248,
      "alcohol": 4249,
      "rs": 4250,
      "##bi": 4251,
      "see": 4252,
      "onset": 4253,
      "near": 4254,
      "sn": 4255,
      "53": 4256,
      "don": 4257,
      "hydrox": 4258,
      "grade": 4259,
      "appropriate": 4260,
      "image": 4261,
      "stroke": 4262,
      "aspir": 4263,
      "damage": 4264,
      "methyl": 4265,
      "49": 4266,
      "suppor": 4267,
      "##ems": 4268,
      "paper": 4269,
      "##entially": 4270,
      "##grad": 4271,
      "refl": 4272,
      "glob": 4273,
      "cohort": 4274,
      "administered": 4275,
      "##agon": 4276,
      "08": 4277,
      "degree": 4278,
      "intact": 4279,
      "##phal": 4280,
      "lipid": 4281,
      "glut": 4282,
      "##cler": 4283,
      "phosphor": 4284,
      "though": 4285,
      "top": 4286,
      "fibr": 4287,
      "testing": 4288,
      "birth": 4289,
      "spont": 4290,
      "infected": 4291,
      "ever": 4292,
      "affect": 4293,
      "##isting": 4294,
      "signs": 4295,
      "fer": 4296,
      "spe": 4297,
      "den": 4298,
      "solution": 4299,
      "##ather": 4300,
      "58": 4301,
      "agents": 4302,
      "prevent": 4303,
      "populations": 4304,
      "59": 4305,
      "traum": 4306,
      "##take": 4307,
      "systolic": 4308,
      "strength": 4309,
      "infar": 4310,
      "51": 4311,
      "chemical": 4312,
      "cann": 4313,
      "ten": 4314,
      "transp": 4315,
      "objectives": 4316,
      "critical": 4317,
      "distin": 4318,
      "##agen": 4319,
      "eng": 4320,
      "##ument": 4321,
      "##50": 4322,
      "reduce": 4323,
      "67": 4324,
      "adh": 4325,
      "provides": 4326,
      "neurolog": 4327,
      "iss": 4328,
      "57": 4329,
      "##utaneous": 4330,
      "##rs": 4331,
      "seven": 4332,
      "necess": 4333,
      "lum": 4334,
      "feeding": 4335,
      "survey": 4336,
      "fraction": 4337,
      "implant": 4338,
      "infusion": 4339,
      "##ressing": 4340,
      "mri": 4341,
      "simple": 4342,
      "statistically": 4343,
      "biops": 4344,
      "repl": 4345,
      "protocol": 4346,
      "64": 4347,
      "differentiation": 4348,
      "estimated": 4349,
      "sd": 4350,
      "kinase": 4351,
      "bo": 4352,
      "suff": 4353,
      "balance": 4354,
      "upon": 4355,
      "components": 4356,
      "signaling": 4357,
      "##otid": 4358,
      "older": 4359,
      "procedures": 4360,
      "taken": 4361,
      "ht": 4362,
      "##ibr": 4363,
      "tc": 4364,
      "regarding": 4365,
      "chann": 4366,
      "tempor": 4367,
      "nerve": 4368,
      "physici": 4369,
      "dig": 4370,
      "##olesterol": 4371,
      "ech": 4372,
      "pig": 4373,
      "adverse": 4374,
      "community": 4375,
      "adap": 4376,
      "calculated": 4377,
      "activated": 4378,
      "having": 4379,
      "##ochond": 4380,
      "none": 4381,
      "cognitive": 4382,
      "sig": 4383,
      "hp": 4384,
      "moreover": 4385,
      "##bry": 4386,
      "wean": 4387,
      "polymer": 4388,
      "real": 4389,
      "##orax": 4390,
      "absence": 4391,
      "remained": 4392,
      "throughout": 4393,
      "ampl": 4394,
      "##oids": 4395,
      "variables": 4396,
      "series": 4397,
      "pregnancy": 4398,
      "proportion": 4399,
      "fas": 4400,
      "abdomen": 4401,
      "##uded": 4402,
      "white": 4403,
      "##ergic": 4404,
      "##loy": 4405,
      "undergo": 4406,
      "basis": 4407,
      "##oplasm": 4408,
      "infer": 4409,
      "spontaneous": 4410,
      "source": 4411,
      "highest": 4412,
      "facil": 4413,
      "##arb": 4414,
      "diagnosed": 4415,
      "##aring": 4416,
      "gast": 4417,
      "150": 4418,
      "microm": 4419,
      "safety": 4420,
      "markers": 4421,
      "##ils": 4422,
      "##oral": 4423,
      "attr": 4424,
      "material": 4425,
      "peptide": 4426,
      "states": 4427,
      "plant": 4428,
      "severity": 4429,
      "##anol": 4430,
      "bro": 4431,
      "little": 4432,
      "chol": 4433,
      "##atur": 4434,
      "intake": 4435,
      "hepar": 4436,
      "cytok": 4437,
      "pulse": 4438,
      "dysfunction": 4439,
      "bio": 4440,
      "##opathy": 4441,
      "hs": 4442,
      "##ustr": 4443,
      "electron": 4444,
      "slow": 4445,
      "##ics": 4446,
      "tom": 4447,
      "##ulate": 4448,
      "migr": 4449,
      "##etry": 4450,
      "please": 4451,
      "much": 4452,
      "examine": 4453,
      "##amma": 4454,
      "recovery": 4455,
      "situ": 4456,
      "hepatic": 4457,
      "interven": 4458,
      "ion": 4459,
      "recorded": 4460,
      "strategies": 4461,
      "uptake": 4462,
      "structural": 4463,
      "diam": 4464,
      "capacity": 4465,
      "nas": 4466,
      "85": 4467,
      "myocardial": 4468,
      "ld": 4469,
      "embry": 4470,
      "##ople": 4471,
      "frag": 4472,
      "unit": 4473,
      "##arch": 4474,
      "##urg": 4475,
      "exposed": 4476,
      "anx": 4477,
      "along": 4478,
      "repair": 4479,
      "started": 4480,
      "62": 4481,
      "resulting": 4482,
      "yo": 4483,
      "atrial": 4484,
      "stem": 4485,
      "particularly": 4486,
      "##ochondr": 4487,
      "##orac": 4488,
      "##aking": 4489,
      "posterior": 4490,
      "maximum": 4491,
      "randomized": 4492,
      "##imens": 4493,
      "achieved": 4494,
      "convention": 4495,
      "medium": 4496,
      "unkn": 4497,
      "var": 4498,
      "bor": 4499,
      "unknown": 4500,
      "ultras": 4501,
      "bacterial": 4502,
      "molecules": 4503,
      "infections": 4504,
      "irr": 4505,
      "clus": 4506,
      "##icial": 4507,
      "fracture": 4508,
      "susp": 4509,
      "functions": 4510,
      "past": 4511,
      "prote": 4512,
      "hemorrh": 4513,
      "cultures": 4514,
      "##ula": 4515,
      "##ethyl": 4516,
      "confidence": 4517,
      "catal": 4518,
      "mitochondr": 4519,
      "component": 4520,
      "quantitative": 4521,
      "labs": 4522,
      "adjus": 4523,
      "alk": 4524,
      "##ea": 4525,
      "wid": 4526,
      "lear": 4527,
      "essential": 4528,
      "induction": 4529,
      "underlying": 4530,
      "auth": 4531,
      "label": 4532,
      "63": 4533,
      "68": 4534,
      "cycle": 4535,
      "lesion": 4536,
      "##ector": 4537,
      "invasive": 4538,
      "origin": 4539,
      "problems": 4540,
      "metabolism": 4541,
      "chec": 4542,
      "pic": 4543,
      "detect": 4544,
      "location": 4545,
      "heparin": 4546,
      "motor": 4547,
      "later": 4548,
      "66": 4549,
      "acids": 4550,
      "##trans": 4551,
      "inflammation": 4552,
      "##ermal": 4553,
      "whole": 4554,
      "importance": 4555,
      "detail": 4556,
      "attem": 4557,
      "fix": 4558,
      "liqu": 4559,
      "##me": 4560,
      "interventions": 4561,
      "##ense": 4562,
      "##oster": 4563,
      "sr": 4564,
      "##arr": 4565,
      "##fac": 4566,
      "chromos": 4567,
      "reproduc": 4568,
      "sci": 4569,
      "##uring": 4570,
      "conventional": 4571,
      "##ered": 4572,
      "rt": 4573,
      "challen": 4574,
      "##etric": 4575,
      "##used": 4576,
      "people": 4577,
      "experience": 4578,
      "pel": 4579,
      "prefer": 4580,
      "##oz": 4581,
      "##encing": 4582,
      "cad": 4583,
      "pair": 4584,
      "acqu": 4585,
      "##itr": 4586,
      "##omer": 4587,
      "trig": 4588,
      "##uter": 4589,
      "platelet": 4590,
      "##oman": 4591,
      "compare": 4592,
      "reviewed": 4593,
      "500": 4594,
      "##eti": 4595,
      "lungs": 4596,
      "transm": 4597,
      "ga": 4598,
      "##gs": 4599,
      "chemotherapy": 4600,
      "##ina": 4601,
      "tog": 4602,
      "continuous": 4603,
      "appar": 4604,
      "natural": 4605,
      "units": 4606,
      "best": 4607,
      "pathways": 4608,
      "##adder": 4609,
      "act": 4610,
      "multiv": 4611,
      "include": 4612,
      "vas": 4613,
      "polymorph": 4614,
      "ge": 4615,
      "base": 4616,
      "##ariate": 4617,
      "subsequent": 4618,
      "variation": 4619,
      "##ontal": 4620,
      "together": 4621,
      "resistant": 4622,
      "sequences": 4623,
      "dm": 4624,
      "neon": 4625,
      "##istry": 4626,
      "##ogenous": 4627,
      "countr": 4628,
      "##ytes": 4629,
      "late": 4630,
      "##isms": 4631,
      "advanced": 4632,
      "##utive": 4633,
      "trac": 4634,
      "weak": 4635,
      "specificity": 4636,
      "gastric": 4637,
      "cerebral": 4638,
      "antagon": 4639,
      "##axis": 4640,
      "gamma": 4641,
      "endothelial": 4642,
      "code": 4643,
      "##illary": 4644,
      "##nas": 4645,
      "summ": 4646,
      "##iety": 4647,
      "hypox": 4648,
      "removal": 4649,
      "relatively": 4650,
      "73": 4651,
      "cholesterol": 4652,
      "##othorax": 4653,
      "198": 4654,
      "epis": 4655,
      "proph": 4656,
      "experiment": 4657,
      "mil": 4658,
      "76": 4659,
      "##que": 4660,
      "remain": 4661,
      "clos": 4662,
      "vess": 4663,
      "cle": 4664,
      "replac": 4665,
      "transport": 4666,
      "eyes": 4667,
      "enter": 4668,
      "restric": 4669,
      "94": 4670,
      "distinct": 4671,
      "consequ": 4672,
      "radiation": 4673,
      "##brid": 4674,
      "ds": 4675,
      "nuclear": 4676,
      "##ots": 4677,
      "portable": 4678,
      "##ams": 4679,
      "leaf": 4680,
      "hepat": 4681,
      "indicating": 4682,
      "diabetic": 4683,
      "78": 4684,
      "##arc": 4685,
      "goal": 4686,
      "##ession": 4687,
      "ss": 4688,
      "systemic": 4689,
      "reach": 4690,
      "hb": 4691,
      "males": 4692,
      "transition": 4693,
      "##osa": 4694,
      "laboratory": 4695,
      "treatments": 4696,
      "terminal": 4697,
      "mutations": 4698,
      "transform": 4699,
      "females": 4700,
      "##ier": 4701,
      "bronch": 4702,
      "emb": 4703,
      "power": 4704,
      "doctor": 4705,
      "bleeding": 4706,
      "enhanc": 4707,
      "wave": 4708,
      "carried": 4709,
      "##ench": 4710,
      "describe": 4711,
      "pass": 4712,
      "cav": 4713,
      "prospective": 4714,
      "cerv": 4715,
      "adequ": 4716,
      "terms": 4717,
      "61": 4718,
      "##idine": 4719,
      "92": 4720,
      "##venous": 4721,
      "environmental": 4722,
      "##ceptib": 4723,
      "69": 4724,
      "##mediate": 4725,
      "##ets": 4726,
      "minimal": 4727,
      "const": 4728,
      "##ru": 4729,
      "relevant": 4730,
      "antibiotics": 4731,
      "radiograph": 4732,
      "77": 4733,
      "frequently": 4734,
      "substan": 4735,
      "mamm": 4736,
      "##ulating": 4737,
      "carbon": 4738,
      "modified": 4739,
      "09": 4740,
      "domain": 4741,
      "needs": 4742,
      "exhibited": 4743,
      "resection": 4744,
      "device": 4745,
      "below": 4746,
      "rest": 4747,
      "larger": 4748,
      "88": 4749,
      "74": 4750,
      "linked": 4751,
      "quantif": 4752,
      "##rix": 4753,
      "adren": 4754,
      "host": 4755,
      "##fort": 4756,
      "##hg": 4757,
      "prophyl": 4758,
      "mitral": 4759,
      "contact": 4760,
      "accuracy": 4761,
      "shows": 4762,
      "##eff": 4763,
      "##cine": 4764,
      "susceptib": 4765,
      "done": 4766,
      "tnf": 4767,
      "extent": 4768,
      "##pa": 4769,
      "far": 4770,
      "tach": 4771,
      "##inity": 4772,
      "cys": 4773,
      "hg": 4774,
      "##activity": 4775,
      "trend": 4776,
      "half": 4777,
      "double": 4778,
      "cos": 4779,
      "##yg": 4780,
      "questionnaire": 4781,
      "problem": 4782,
      "limit": 4783,
      "third": 4784,
      "receiving": 4785,
      "placebo": 4786,
      "##emb": 4787,
      "reports": 4788,
      "stre": 4789,
      "93": 4790,
      "spinal": 4791,
      "intensity": 4792,
      "inhibitors": 4793,
      "atp": 4794,
      "##onomic": 4795,
      "##elling": 4796,
      "cd4": 4797,
      "slightly": 4798,
      "##aged": 4799,
      "##otypes": 4800,
      "hypothesis": 4801,
      "orient": 4802,
      "infants": 4803,
      "ck": 4804,
      "71": 4805,
      "magnetic": 4806,
      "##asts": 4807,
      "macroph": 4808,
      "pneumothorax": 4809,
      "mur": 4810,
      "mechanical": 4811,
      "until": 4812,
      "##enic": 4813,
      "soci": 4814,
      "##ars": 4815,
      "national": 4816,
      "86": 4817,
      "##ococc": 4818,
      "83": 4819,
      "##encies": 4820,
      "##man": 4821,
      "nod": 4822,
      "interpre": 4823,
      "drain": 4824,
      "84": 4825,
      "81": 4826,
      "##roscopic": 4827,
      "datab": 4828,
      "pal": 4829,
      "completed": 4830,
      "education": 4831,
      "tip": 4832,
      "##truction": 4833,
      "alg": 4834,
      "120": 4835,
      "cervical": 4836,
      "82": 4837,
      "special": 4838,
      "woman": 4839,
      "##aine": 4840,
      "predicted": 4841,
      "##itude": 4842,
      "every": 4843,
      "##pm": 4844,
      "wild": 4845,
      "##ca": 4846,
      "toxicity": 4847,
      "lv": 4848,
      "neck": 4849,
      "##oding": 4850,
      "secretion": 4851,
      "lobe": 4852,
      "##inated": 4853,
      "coupl": 4854,
      "measurement": 4855,
      "tumour": 4856,
      "map": 4857,
      "defin": 4858,
      "smoking": 4859,
      "mainly": 4860,
      "bur": 4861,
      "comments": 4862,
      "adoles": 4863,
      "urinary": 4864,
      "longer": 4865,
      "sa": 4866,
      "altered": 4867,
      "motion": 4868,
      "degrad": 4869,
      "distal": 4870,
      "##hood": 4871,
      "pg": 4872,
      "bacteria": 4873,
      "##co": 4874,
      "recommend": 4875,
      "contribute": 4876,
      "corresponding": 4877,
      "necessary": 4878,
      "developing": 4879,
      "abnormalities": 4880,
      "causes": 4881,
      "offer": 4882,
      "eg": 4883,
      "##ired": 4884,
      "implement": 4885,
      "promot": 4886,
      "clinically": 4887,
      "norm": 4888,
      "selection": 4889,
      "aimed": 4890,
      "identification": 4891,
      "basal": 4892,
      "gastro": 4893,
      "composition": 4894,
      "contex": 4895,
      "vitamin": 4896,
      "##tation": 4897,
      "yield": 4898,
      "matrix": 4899,
      "##erative": 4900,
      "employ": 4901,
      "intracellular": 4902,
      "regard": 4903,
      "arth": 4904,
      "stimulated": 4905,
      "antic": 4906,
      "##azole": 4907,
      "evolution": 4908,
      "##ymm": 4909,
      "spati": 4910,
      "wide": 4911,
      "fever": 4912,
      "physiological": 4913,
      "regular": 4914,
      "selective": 4915,
      "prevention": 4916,
      "admitted": 4917,
      "global": 4918,
      "except": 4919,
      "dimension": 4920,
      "##oprotein": 4921,
      "retrospective": 4922,
      "##onin": 4923,
      "gran": 4924,
      "imm": 4925,
      "##ights": 4926,
      "cryst": 4927,
      "##tially": 4928,
      "##inf": 4929,
      "##olved": 4930,
      "##ometry": 4931,
      "bound": 4932,
      "minutes": 4933,
      "strategy": 4934,
      "##ings": 4935,
      "satis": 4936,
      "designed": 4937,
      "79": 4938,
      "students": 4939,
      "segment": 4940,
      "asth": 4941,
      "yet": 4942,
      "supplement": 4943,
      "subc": 4944,
      "service": 4945,
      "tm": 4946,
      "87": 4947,
      "frequent": 4948,
      "incor": 4949,
      "nursing": 4950,
      "proj": 4951,
      "epithelial": 4952,
      "##2o": 4953,
      "attention": 4954,
      "liquid": 4955,
      "##elect": 4956,
      "##ills": 4957,
      "ter": 4958,
      "eas": 4959,
      "memory": 4960,
      "diameter": 4961,
      "wbc": 4962,
      "##ophil": 4963,
      "isolates": 4964,
      "impaired": 4965,
      "pf": 4966,
      "89": 4967,
      "alternative": 4968,
      "progress": 4969,
      "##ident": 4970,
      "ta": 4971,
      "##ycard": 4972,
      "recombin": 4973,
      "eryth": 4974,
      "percentage": 4975,
      "anxiety": 4976,
      "cho": 4977,
      "services": 4978,
      "##la": 4979,
      "ultrasound": 4980,
      "sten": 4981,
      "directly": 4982,
      "##ecutive": 4983,
      "thorac": 4984,
      "conn": 4985,
      "viral": 4986,
      "##orbidity": 4987,
      "asc": 4988,
      "world": 4989,
      "infil": 4990,
      "err": 4991,
      "network": 4992,
      "grad": 4993,
      "##ectiveness": 4994,
      "revers": 4995,
      "categ": 4996,
      "ure": 4997,
      "differential": 4998,
      "recurrence": 4999,
      "##amide": 5000,
      "gtt": 5001,
      "reconstr": 5002,
      "##dr": 5003,
      "ste": 5004,
      "iron": 5005,
      "movement": 5006,
      "##ady": 5007,
      "##ape": 5008,
      "conj": 5009,
      "##ometric": 5010,
      "chi": 5011,
      "statistical": 5012,
      "opp": 5013,
      "eu": 5014,
      "inp": 5015,
      "public": 5016,
      "graft": 5017,
      "fo": 5018,
      "##eral": 5019,
      "##io2": 5020,
      "event": 5021,
      "effectiveness": 5022,
      "intravenous": 5023,
      "cand": 5024,
      "enzymes": 5025,
      "nine": 5026,
      "vanc": 5027,
      "univers": 5028,
      "efficiency": 5029,
      "##ering": 5030,
      "microscopy": 5031,
      "##obl": 5032,
      "##itone": 5033,
      "partial": 5034,
      "venous": 5035,
      "admitting": 5036,
      "fibro": 5037,
      "stability": 5038,
      "check": 5039,
      "gly": 5040,
      "arg": 5041,
      "maternal": 5042,
      "around": 5043,
      "adhes": 5044,
      "tolerated": 5045,
      "hybrid": 5046,
      "##vis": 5047,
      "##ialysis": 5048,
      "##osyn": 5049,
      "##tile": 5050,
      "perf": 5051,
      "transplantation": 5052,
      "##11": 5053,
      "occur": 5054,
      "reson": 5055,
      "neurop": 5056,
      "regulated": 5057,
      "caro": 5058,
      "anesth": 5059,
      "##ergies": 5060,
      "##bor": 5061,
      "resolution": 5062,
      "famil": 5063,
      "vein": 5064,
      "vaccin": 5065,
      "hormone": 5066,
      "leading": 5067,
      "cough": 5068,
      "prostate": 5069,
      "facilit": 5070,
      "hypot": 5071,
      "height": 5072,
      "gel": 5073,
      "means": 5074,
      "ca2": 5075,
      "reactive": 5076,
      "por": 5077,
      "##urb": 5078,
      "##imen": 5079,
      "##esized": 5080,
      "school": 5081,
      "##pler": 5082,
      "##land": 5083,
      "approaches": 5084,
      "instit": 5085,
      "##less": 5086,
      "##rup": 5087,
      "systematic": 5088,
      "once": 5089,
      "center": 5090,
      "##enz": 5091,
      "##ique": 5092,
      "repeat": 5093,
      "prolong": 5094,
      "generated": 5095,
      "obes": 5096,
      "introduction": 5097,
      "mob": 5098,
      "hemorrhage": 5099,
      "accumulation": 5100,
      "americ": 5101,
      "##activ": 5102,
      "involvement": 5103,
      "reference": 5104,
      "appearance": 5105,
      "candid": 5106,
      "##ocl": 5107,
      "communication": 5108,
      "rare": 5109,
      "aer": 5110,
      "recommended": 5111,
      "coli": 5112,
      "leg": 5113,
      "changed": 5114,
      "##ocal": 5115,
      "rou": 5116,
      "##ively": 5117,
      "strongly": 5118,
      "rib": 5119,
      "fed": 5120,
      "obesity": 5121,
      "thickness": 5122,
      "temporal": 5123,
      "significance": 5124,
      "fall": 5125,
      "superior": 5126,
      "##atives": 5127,
      "trauma": 5128,
      "##ella": 5129,
      "cas": 5130,
      "rather": 5131,
      "adjusted": 5132,
      "incorpor": 5133,
      "aort": 5134,
      "learning": 5135,
      "divid": 5136,
      "continued": 5137,
      "seiz": 5138,
      "eye": 5139,
      "forms": 5140,
      "fluor": 5141,
      "##licated": 5142,
      "team": 5143,
      "oxidative": 5144,
      "generation": 5145,
      "vent": 5146,
      "airway": 5147,
      "processing": 5148,
      "genome": 5149,
      "##ounts": 5150,
      "biopsy": 5151,
      "rot": 5152,
      "context": 5153,
      "specimens": 5154,
      "compl": 5155,
      "##lets": 5156,
      "prox": 5157,
      "ulcer": 5158,
      "chromat": 5159,
      "pi": 5160,
      "sperm": 5161,
      "predom": 5162,
      "##truct": 5163,
      "profil": 5164,
      "abg": 5165,
      "mmhg": 5166,
      "##estern": 5167,
      "plants": 5168,
      "##cted": 5169,
      "majority": 5170,
      "91": 5171,
      "##uts": 5172,
      "##unc": 5173,
      "attenu": 5174,
      "profile": 5175,
      "odds": 5176,
      "feed": 5177,
      "infarction": 5178,
      "fatty": 5179,
      "optimal": 5180,
      "interview": 5181,
      "bed": 5182,
      "myel": 5183,
      "tele": 5184,
      "##bial": 5185,
      "##ternal": 5186,
      "sv": 5187,
      "finally": 5188,
      "cortex": 5189,
      "0001": 5190,
      "##obacter": 5191,
      "mutation": 5192,
      "squ": 5193,
      "##xt": 5194,
      "establish": 5195,
      "kne": 5196,
      "distress": 5197,
      "puls": 5198,
      "consumption": 5199,
      "task": 5200,
      "inhibitory": 5201,
      "doppler": 5202,
      "stages": 5203,
      "interfer": 5204,
      "##den": 5205,
      "mt": 5206,
      "##anes": 5207,
      "led": 5208,
      "determin": 5209,
      "##izes": 5210,
      "confirm": 5211,
      "collagen": 5212,
      "points": 5213,
      "lap": 5214,
      "hemodynamic": 5215,
      "medicine": 5216,
      "thyroid": 5217,
      "##enty": 5218,
      "##arily": 5219,
      "search": 5220,
      "ray": 5221,
      "specif": 5222,
      "leads": 5223,
      "prophylaxis": 5224,
      "another": 5225,
      "ann": 5226,
      "orth": 5227,
      "##io": 5228,
      "wt": 5229,
      "prn": 5230,
      "simult": 5231,
      "##ellow": 5232,
      "focal": 5233,
      "authors": 5234,
      "cf": 5235,
      "lys": 5236,
      "gender": 5237,
      "simultaneous": 5238,
      "##iac": 5239,
      "##nea": 5240,
      "twenty": 5241,
      "##erved": 5242,
      "wound": 5243,
      "joint": 5244,
      "pv": 5245,
      "adequate": 5246,
      "malignant": 5247,
      "##ls": 5248,
      "intern": 5249,
      "mode": 5250,
      "rab": 5251,
      "##ception": 5252,
      "cultured": 5253,
      "expected": 5254,
      "aims": 5255,
      "publ": 5256,
      "##resh": 5257,
      "dog": 5258,
      "##icard": 5259,
      "##he": 5260,
      "transl": 5261,
      "dimin": 5262,
      "pla": 5263,
      "paras": 5264,
      "lev": 5265,
      "##ette": 5266,
      "##ided": 5267,
      "flex": 5268,
      "agre": 5269,
      "##esia": 5270,
      "illness": 5271,
      "##version": 5272,
      "subun": 5273,
      "must": 5274,
      "polyp": 5275,
      "fluorescence": 5276,
      "cord": 5277,
      "gre": 5278,
      "constit": 5279,
      "undergoing": 5280,
      "##20": 5281,
      "western": 5282,
      "induce": 5283,
      "recru": 5284,
      "stenosis": 5285,
      "involving": 5286,
      "fetal": 5287,
      "behaviour": 5288,
      "##dle": 5289,
      "fit": 5290,
      "divided": 5291,
      "assays": 5292,
      "investigation": 5293,
      "bili": 5294,
      "ischemia": 5295,
      "##ritis": 5296,
      "staining": 5297,
      "##arged": 5298,
      "arm": 5299,
      "##aryn": 5300,
      "##ra": 5301,
      "kinetic": 5302,
      "##rec": 5303,
      "ventilation": 5304,
      "mixed": 5305,
      "caps": 5306,
      "fav": 5307,
      "feeds": 5308,
      "countries": 5309,
      "pancreatic": 5310,
      "##otide": 5311,
      "reactions": 5312,
      "##cers": 5313,
      "asthma": 5314,
      "predictive": 5315,
      "seps": 5316,
      "analog": 5317,
      "##olip": 5318,
      "atelect": 5319,
      "metal": 5320,
      "##ohist": 5321,
      "marker": 5322,
      "agent": 5323,
      "haem": 5324,
      "consecutive": 5325,
      "responsible": 5326,
      "constant": 5327,
      "dietary": 5328,
      "way": 5329,
      "neural": 5330,
      "potentially": 5331,
      "published": 5332,
      "##atient": 5333,
      "external": 5334,
      "attrib": 5335,
      "cb": 5336,
      "##ned": 5337,
      "article": 5338,
      "layer": 5339,
      "transmission": 5340,
      "##omycin": 5341,
      "amb": 5342,
      "##oscopy": 5343,
      "extracellular": 5344,
      "##orts": 5345,
      "output": 5346,
      "coeff": 5347,
      "##asia": 5348,
      "deep": 5349,
      "prepared": 5350,
      "benefit": 5351,
      "immunohist": 5352,
      "transferred": 5353,
      "person": 5354,
      "mitochondrial": 5355,
      "located": 5356,
      "##rophy": 5357,
      "barri": 5358,
      "##uary": 5359,
      "iso": 5360,
      "predict": 5361,
      "complexes": 5362,
      "substrate": 5363,
      "matched": 5364,
      "##rog": 5365,
      "##bal": 5366,
      "upd": 5367,
      "resonance": 5368,
      "delayed": 5369,
      "nc": 5370,
      "vital": 5371,
      "##itable": 5372,
      "pse": 5373,
      "##oxide": 5374,
      "thresh": 5375,
      "trad": 5376,
      "tetr": 5377,
      "removed": 5378,
      "microg": 5379,
      "spl": 5380,
      "sexual": 5381,
      "sepsis": 5382,
      "occl": 5383,
      "gest": 5384,
      "sbp": 5385,
      "##ucle": 5386,
      "##acts": 5387,
      "adip": 5388,
      "##ump": 5389,
      "##iph": 5390,
      "tract": 5391,
      "##ify": 5392,
      "##otion": 5393,
      "inser": 5394,
      "intestinal": 5395,
      "operative": 5396,
      "enrol": 5397,
      "avoid": 5398,
      "lac": 5399,
      "commonly": 5400,
      "unique": 5401,
      "dos": 5402,
      "specifically": 5403,
      "plus": 5404,
      "##enol": 5405,
      "##ycardia": 5406,
      "intubated": 5407,
      "esoph": 5408,
      "mutant": 5409,
      "germ": 5410,
      "##tration": 5411,
      "produce": 5412,
      "prognostic": 5413,
      "ast": 5414,
      "spine": 5415,
      "aorta": 5416,
      "benign": 5417,
      "spatial": 5418,
      "neph": 5419,
      "reducing": 5420,
      "tb": 5421,
      "ful": 5422,
      "product": 5423,
      "secretions": 5424,
      "variety": 5425,
      "melan": 5426,
      "certain": 5427,
      "broad": 5428,
      "reh": 5429,
      "tend": 5430,
      "affinity": 5431,
      "prognosis": 5432,
      "##most": 5433,
      "generally": 5434,
      "morbidity": 5435,
      "##otrop": 5436,
      "olig": 5437,
      "anat": 5438,
      "dp": 5439,
      "toxic": 5440,
      "space": 5441,
      "princ": 5442,
      "##olid": 5443,
      "clinic": 5444,
      "##irus": 5445,
      "associations": 5446,
      "pseud": 5447,
      "##ontin": 5448,
      "sput": 5449,
      "residual": 5450,
      "continues": 5451,
      "albumin": 5452,
      "princip": 5453,
      "document": 5454,
      "bladder": 5455,
      "operation": 5456,
      "tradition": 5457,
      "applications": 5458,
      "##osin": 5459,
      "collection": 5460,
      "prem": 5461,
      "##ching": 5462,
      "root": 5463,
      "ischemic": 5464,
      "fio2": 5465,
      "lasix": 5466,
      "agon": 5467,
      "##artic": 5468,
      "creatin": 5469,
      "##obic": 5470,
      "formed": 5471,
      "ane": 5472,
      "equal": 5473,
      "##ange": 5474,
      "frame": 5475,
      "##anial": 5476,
      "auto": 5477,
      "regulatory": 5478,
      "eval": 5479,
      "manner": 5480,
      "dry": 5481,
      "stimuli": 5482,
      "atelectasis": 5483,
      "proximal": 5484,
      "##ectin": 5485,
      "##ias": 5486,
      "##ives": 5487,
      "ifn": 5488,
      "##eletal": 5489,
      "initially": 5490,
      "medication": 5491,
      "living": 5492,
      "probably": 5493,
      "pb": 5494,
      "ves": 5495,
      "allergies": 5496,
      "multivariate": 5497,
      "members": 5498,
      "vel": 5499,
      "middle": 5500,
      "sac": 5501,
      "questions": 5502,
      "cytotox": 5503,
      "core": 5504,
      "start": 5505,
      "oh": 5506,
      "transf": 5507,
      "consist": 5508,
      "persistent": 5509,
      "##tility": 5510,
      "nature": 5511,
      "extensive": 5512,
      "heterogene": 5513,
      "resour": 5514,
      "##apse": 5515,
      "sats": 5516,
      "aggreg": 5517,
      "oct": 5518,
      "pan": 5519,
      "relation": 5520,
      "demographic": 5521,
      "numer": 5522,
      "bmi": 5523,
      "irradi": 5524,
      "comparable": 5525,
      "##aves": 5526,
      "force": 5527,
      "##mic": 5528,
      "turn": 5529,
      "appeared": 5530,
      "histological": 5531,
      "regional": 5532,
      "gh": 5533,
      "widely": 5534,
      "flo": 5535,
      "fish": 5536,
      "##phone": 5537,
      "##53": 5538,
      "cannot": 5539,
      "closely": 5540,
      "repeated": 5541,
      "unclear": 5542,
      "nasal": 5543,
      "spo2": 5544,
      "##cal": 5545,
      "interest": 5546,
      "decision": 5547,
      "algor": 5548,
      "##urys": 5549,
      "##itary": 5550,
      "##arian": 5551,
      "dimensional": 5552,
      "##ope": 5553,
      "sent": 5554,
      "almost": 5555,
      "algorith": 5556,
      "cis": 5557,
      "preoperative": 5558,
      "arch": 5559,
      "recurrent": 5560,
      "ather": 5561,
      "cereb": 5562,
      "issues": 5563,
      "sputum": 5564,
      "##eta": 5565,
      "micros": 5566,
      "##eal": 5567,
      "inr": 5568,
      "called": 5569,
      "##ester": 5570,
      "dc": 5571,
      "##alian": 5572,
      "##rot": 5573,
      "mv": 5574,
      "extremities": 5575,
      "##iology": 5576,
      "nf": 5577,
      "efficient": 5578,
      "fractures": 5579,
      "ratios": 5580,
      "##lier": 5581,
      "occurs": 5582,
      "soil": 5583,
      "promoter": 5584,
      "amounts": 5585,
      "hepatitis": 5586,
      "breathing": 5587,
      "##ush": 5588,
      "dv": 5589,
      "degradation": 5590,
      "bol": 5591,
      "profession": 5592,
      "variable": 5593,
      "##otr": 5594,
      "##ention": 5595,
      "become": 5596,
      "perc": 5597,
      "insp": 5598,
      "##hal": 5599,
      "gp": 5600,
      "advant": 5601,
      "humans": 5602,
      "##tre": 5603,
      "aud": 5604,
      "elder": 5605,
      "##usc": 5606,
      "laser": 5607,
      "recip": 5608,
      "implications": 5609,
      "pk": 5610,
      "##ash": 5611,
      "relationships": 5612,
      "conclude": 5613,
      "igg": 5614,
      "##30": 5615,
      "##16": 5616,
      "##ee": 5617,
      "##cephal": 5618,
      "dynamics": 5619,
      "highl": 5620,
      "m2": 5621,
      "##elines": 5622,
      "instr": 5623,
      "substit": 5624,
      "som": 5625,
      "##idal": 5626,
      "ros": 5627,
      "##ked": 5628,
      "retin": 5629,
      "knee": 5630,
      "##wise": 5631,
      "shock": 5632,
      "making": 5633,
      "depart": 5634,
      "carotid": 5635,
      "##oon": 5636,
      "verte": 5637,
      "##itiz": 5638,
      "neuronal": 5639,
      "femoral": 5640,
      "solid": 5641,
      "##uls": 5642,
      "vaccine": 5643,
      "##elium": 5644,
      "##itoneal": 5645,
      "complain": 5646,
      "tracing": 5647,
      "ivf": 5648,
      "rev": 5649,
      "##opr": 5650,
      "rob": 5651,
      "fung": 5652,
      "##ibly": 5653,
      "parents": 5654,
      "ow": 5655,
      "classification": 5656,
      "veloc": 5657,
      "cortical": 5658,
      "earlier": 5659,
      "settings": 5660,
      "exist": 5661,
      "sources": 5662,
      "pet": 5663,
      "impairment": 5664,
      "##ember": 5665,
      "phosphorylation": 5666,
      "haz": 5667,
      "##xp": 5668,
      "##ging": 5669,
      "##itud": 5670,
      "vary": 5671,
      "##otomy": 5672,
      "ce": 5673,
      "antioxid": 5674,
      "onc": 5675,
      "##ields": 5676,
      "##itus": 5677,
      "taking": 5678,
      "radical": 5679,
      "400": 5680,
      "fully": 5681,
      "predominant": 5682,
      "fusion": 5683,
      "successfully": 5684,
      "face": 5685,
      "prolonged": 5686,
      "elderly": 5687,
      "restor": 5688,
      "return": 5689,
      "experienced": 5690,
      "bond": 5691,
      "run": 5692,
      "##ori": 5693,
      "##ared": 5694,
      "emph": 5695,
      "pyr": 5696,
      "cu": 5697,
      "guidelines": 5698,
      "##crim": 5699,
      "added": 5700,
      "telephone": 5701,
      "migration": 5702,
      "alterations": 5703,
      "maintained": 5704,
      "frontal": 5705,
      "mildly": 5706,
      "apparent": 5707,
      "independ": 5708,
      "attemp": 5709,
      "rabb": 5710,
      "costs": 5711,
      "ls": 5712,
      "numbers": 5713,
      "channel": 5714,
      "phenotype": 5715,
      "replacement": 5716,
      "##aces": 5717,
      "improving": 5718,
      "300": 5719,
      "##rel": 5720,
      "trop": 5721,
      "acetyl": 5722,
      "put": 5723,
      "diminished": 5724,
      "metastatic": 5725,
      "drainage": 5726,
      "250": 5727,
      "electroph": 5728,
      "room": 5729,
      "sectional": 5730,
      "t2": 5731,
      "deriv": 5732,
      "pen": 5733,
      "safe": 5734,
      "oxide": 5735,
      "discrim": 5736,
      "minim": 5737,
      "organic": 5738,
      "phosphate": 5739,
      "residues": 5740,
      "mom": 5741,
      "ke": 5742,
      "ads": 5743,
      "suction": 5744,
      "alert": 5745,
      "chromatography": 5746,
      "##ords": 5747,
      "assign": 5748,
      "categor": 5749,
      "deficiency": 5750,
      "##osite": 5751,
      "explore": 5752,
      "##inate": 5753,
      "medias": 5754,
      "respect": 5755,
      "tomography": 5756,
      "molecule": 5757,
      "account": 5758,
      "nons": 5759,
      "purified": 5760,
      "du": 5761,
      "hf": 5762,
      "variability": 5763,
      "nanop": 5764,
      "profiles": 5765,
      "randomly": 5766,
      "emotion": 5767,
      "defic": 5768,
      "##enchym": 5769,
      "##arkable": 5770,
      "behavioral": 5771,
      "##ycin": 5772,
      "accurate": 5773,
      "nic": 5774,
      "mas": 5775,
      "abund": 5776,
      "##eling": 5777,
      "gain": 5778,
      "tolerance": 5779,
      "hipp": 5780,
      "csf": 5781,
      "140": 5782,
      "##acin": 5783,
      "recombinant": 5784,
      "ana": 5785,
      "logistic": 5786,
      "eti": 5787,
      "wa": 5788,
      "pericard": 5789,
      "completely": 5790,
      "challenge": 5791,
      "marrow": 5792,
      "contamin": 5793,
      "enti": 5794,
      "##illin": 5795,
      "##olytic": 5796,
      "count": 5797,
      "subt": 5798,
      "##ologies": 5799,
      "biomark": 5800,
      "aneurys": 5801,
      "##ring": 5802,
      "emergency": 5803,
      "make": 5804,
      "mor": 5805,
      "aug": 5806,
      "protection": 5807,
      "##group": 5808,
      "lc": 5809,
      "pediatric": 5810,
      "bran": 5811,
      "gal": 5812,
      "particles": 5813,
      "obese": 5814,
      "peptides": 5815,
      "uv": 5816,
      "ak": 5817,
      "feas": 5818,
      "requires": 5819,
      "inferior": 5820,
      "##jection": 5821,
      "descrip": 5822,
      "cluster": 5823,
      "##oscopic": 5824,
      "##teen": 5825,
      "exch": 5826,
      "estimate": 5827,
      "complement": 5828,
      "lapa": 5829,
      "##asty": 5830,
      "close": 5831,
      "curve": 5832,
      "comfort": 5833,
      "yellow": 5834,
      "promising": 5835,
      "##ocamp": 5836,
      "next": 5837,
      "europ": 5838,
      "##anyl": 5839,
      "cover": 5840,
      "gradi": 5841,
      "direction": 5842,
      "fent": 5843,
      "##ogenetic": 5844,
      "university": 5845,
      "macrophages": 5846,
      "##thesis": 5847,
      "occup": 5848,
      "la": 5849,
      "degen": 5850,
      "##char": 5851,
      "membranes": 5852,
      "wr": 5853,
      "nt": 5854,
      "##uration": 5855,
      "cxr": 5856,
      "absorption": 5857,
      "elements": 5858,
      "agreement": 5859,
      "##ga": 5860,
      "nh": 5861,
      "##reh": 5862,
      "minor": 5863,
      "myc": 5864,
      "band": 5865,
      "overe": 5866,
      "##ageal": 5867,
      "##lobin": 5868,
      "metastasis": 5869,
      "trigg": 5870,
      "requiring": 5871,
      "plays": 5872,
      "picc": 5873,
      "occurrence": 5874,
      "##mc": 5875,
      "fif": 5876,
      "##apping": 5877,
      "smaller": 5878,
      "excess": 5879,
      "conform": 5880,
      "##gramm": 5881,
      "blot": 5882,
      "cavity": 5883,
      "sep": 5884,
      "what": 5885,
      "##rile": 5886,
      "pathogenesis": 5887,
      "##osal": 5888,
      "pathological": 5889,
      "database": 5890,
      "trache": 5891,
      "roles": 5892,
      "wors": 5893,
      "fragment": 5894,
      "assist": 5895,
      "elim": 5896,
      "analysed": 5897,
      "dors": 5898,
      "jan": 5899,
      "physicians": 5900,
      "polymerase": 5901,
      "fa": 5902,
      "adher": 5903,
      "lymphocytes": 5904,
      "hypoxia": 5905,
      "seems": 5906,
      "##isation": 5907,
      "donor": 5908,
      "records": 5909,
      "##ires": 5910,
      "##osine": 5911,
      "showing": 5912,
      "alt": 5913,
      "presentation": 5914,
      "##icle": 5915,
      "milk": 5916,
      "rapidly": 5917,
      "foley": 5918,
      "##ulatory": 5919,
      "therm": 5920,
      "temp": 5921,
      "satisf": 5922,
      "warm": 5923,
      "overexp": 5924,
      "towards": 5925,
      "heat": 5926,
      "##by": 5927,
      "diast": 5928,
      "biochemical": 5929,
      "##intestinal": 5930,
      "scler": 5931,
      "##ients": 5932,
      "routine": 5933,
      "ect": 5934,
      "mmol": 5935,
      "creatinine": 5936,
      "europe": 5937,
      "epidem": 5938,
      "##h2o": 5939,
      "measuring": 5940,
      "compr": 5941,
      "divers": 5942,
      "inst": 5943,
      "compreh": 5944,
      "hypotension": 5945,
      "understand": 5946,
      "gastrointestinal": 5947,
      "fast": 5948,
      "usually": 5949,
      "injuries": 5950,
      "##itively": 5951,
      "130": 5952,
      "conver": 5953,
      "nucleus": 5954,
      "marg": 5955,
      "ligand": 5956,
      "hippocamp": 5957,
      "125": 5958,
      "mn": 5959,
      "dogs": 5960,
      "maintain": 5961,
      "address": 5962,
      "traditional": 5963,
      "ventil": 5964,
      "determination": 5965,
      "##immun": 5966,
      "##illation": 5967,
      "##apl": 5968,
      "##ili": 5969,
      "compound": 5970,
      "spectrum": 5971,
      "##18": 5972,
      "periods": 5973,
      "##acent": 5974,
      "extraction": 5975,
      "susceptibility": 5976,
      "morphology": 5977,
      "interes": 5978,
      "##ectious": 5979,
      "protective": 5980,
      "ovarian": 5981,
      "inn": 5982,
      "enrolled": 5983,
      "perfusion": 5984,
      "markedly": 5985,
      "##gal": 5986,
      "developmental": 5987,
      "dvt": 5988,
      "stabil": 5989,
      "thoracic": 5990,
      "computed": 5991,
      "transient": 5992,
      "enl": 5993,
      "##taining": 5994,
      "aspects": 5995,
      "perce": 5996,
      "##fs": 5997,
      "nanopartic": 5998,
      "##rin": 5999,
      "beg": 6000,
      "volun": 6001,
      "##fa": 6002,
      "necrosis": 6003,
      "##15": 6004,
      "indicates": 6005,
      "limits": 6006,
      "benefits": 6007,
      "recognition": 6008,
      "##ho": 6009,
      "az": 6010,
      "hund": 6011,
      "construc": 6012,
      "hundred": 6013,
      "programs": 6014,
      "##to": 6015,
      "##isc": 6016,
      "polic": 6017,
      "ranged": 6018,
      "chromosome": 6019,
      "accept": 6020,
      "bu": 6021,
      "distance": 6022,
      "##lycer": 6023,
      "##ompan": 6024,
      "##13": 6025,
      "fibrobl": 6026,
      "camp": 6027,
      "hazard": 6028,
      "benz": 6029,
      "extract": 6030,
      "##oked": 6031,
      "igf": 6032,
      "stent": 6033,
      "arteries": 6034,
      "node": 6035,
      "##aptic": 6036,
      "signals": 6037,
      "adhesion": 6038,
      "amyl": 6039,
      "##letion": 6040,
      "afric": 6041,
      "##14": 6042,
      "consolid": 6043,
      "accompan": 6044,
      "##oscler": 6045,
      "concept": 6046,
      "bolus": 6047,
      "existing": 6048,
      "cox": 6049,
      "aa": 6050,
      "##ressor": 6051,
      "media": 6052,
      "employed": 6053,
      "failed": 6054,
      "manif": 6055,
      "tl": 6056,
      "infectious": 6057,
      "additionally": 6058,
      "##wh": 6059,
      "cyp": 6060,
      "ip": 6061,
      "radial": 6062,
      "contained": 6063,
      "fu": 6064,
      "discover": 6065,
      "night": 6066,
      "gall": 6067,
      "excell": 6068,
      "allows": 6069,
      "3d": 6070,
      "theory": 6071,
      "vag": 6072,
      "##osterone": 6073,
      "##reatment": 6074,
      "##ocar": 6075,
      "##ervation": 6076,
      "maximal": 6077,
      "##aline": 6078,
      "basic": 6079,
      "subsequently": 6080,
      "observations": 6081,
      "partially": 6082,
      "cut": 6083,
      "targets": 6084,
      "##acted": 6085,
      "domains": 6086,
      "stay": 6087,
      "adjust": 6088,
      "##ologous": 6089,
      "subgroup": 6090,
      "dental": 6091,
      "acquired": 6092,
      "110": 6093,
      "oil": 6094,
      "##cents": 6095,
      "effusions": 6096,
      "##oring": 6097,
      "##treated": 6098,
      "endogenous": 6099,
      "defects": 6100,
      "independently": 6101,
      "##nia": 6102,
      "cmh2o": 6103,
      "january": 6104,
      "graf": 6105,
      "artif": 6106,
      "american": 6107,
      "egf": 6108,
      "##bar": 6109,
      "##np": 6110,
      "##oration": 6111,
      "attending": 6112,
      "programm": 6113,
      "##ucid": 6114,
      "genomic": 6115,
      "oxidation": 6116,
      "saline": 6117,
      "ethanol": 6118,
      "fibrosis": 6119,
      "comparing": 6120,
      "coord": 6121,
      "##olysis": 6122,
      "you": 6123,
      "s1": 6124,
      "##eg": 6125,
      "fill": 6126,
      "##avage": 6127,
      "sat": 6128,
      "remaining": 6129,
      "lps": 6130,
      "providing": 6131,
      "potent": 6132,
      "parall": 6133,
      "chin": 6134,
      "matter": 6135,
      "uns": 6136,
      "##mm": 6137,
      "obtain": 6138,
      "regurg": 6139,
      "ordered": 6140,
      "adolescents": 6141,
      "carri": 6142,
      "aspiration": 6143,
      "lt": 6144,
      "extended": 6145,
      "##ifications": 6146,
      "concerning": 6147,
      "blind": 6148,
      "physician": 6149,
      "pool": 6150,
      "regimen": 6151,
      "plt": 6152,
      "break": 6153,
      "stom": 6154,
      "genotype": 6155,
      "working": 6156,
      "practic": 6157,
      "rich": 6158,
      "bc": 6159,
      "cpap": 6160,
      "##ophys": 6161,
      "leaflets": 6162,
      "possibility": 6163,
      "intermediate": 6164,
      "##ompl": 6165,
      "##pass": 6166,
      "rv": 6167,
      "##trates": 6168,
      "##rief": 6169,
      "##enia": 6170,
      "tgf": 6171,
      "varied": 6172,
      "tp": 6173,
      "enhance": 6174,
      "copd": 6175,
      "##yle": 6176,
      "find": 6177,
      "cancers": 6178,
      "jap": 6179,
      "t1": 6180,
      "clon": 6181,
      "##ancies": 6182,
      "##thers": 6183,
      "##ocation": 6184,
      "intensive": 6185,
      "move": 6186,
      "fm": 6187,
      "entire": 6188,
      "neutral": 6189,
      "overn": 6190,
      "families": 6191,
      "immunos": 6192,
      "##ylated": 6193,
      "microgram": 6194,
      "tun": 6195,
      "##ocrine": 6196,
      "excellent": 6197,
      "morphological": 6198,
      "diffuse": 6199,
      "##arrh": 6200,
      "pulses": 6201,
      "intervals": 6202,
      "##ophren": 6203,
      "correct": 6204,
      "##ochemistry": 6205,
      "injected": 6206,
      "episodes": 6207,
      "actin": 6208,
      "possibly": 6209,
      "##akes": 6210,
      "ventricle": 6211,
      "organization": 6212,
      "take": 6213,
      "classified": 6214,
      "devi": 6215,
      "healing": 6216,
      "fund": 6217,
      "mp": 6218,
      "##cles": 6219,
      "patch": 6220,
      "drink": 6221,
      "##ata": 6222,
      "##ict": 6223,
      "h2": 6224,
      "angle": 6225,
      "enhancement": 6226,
      "##oglobin": 6227,
      "resolved": 6228,
      "##ectivity": 6229,
      "bot": 6230,
      "never": 6231,
      "##ister": 6232,
      "targeted": 6233,
      "spectroscopy": 6234,
      "cytokines": 6235,
      "observation": 6236,
      "##iform": 6237,
      "disrup": 6238,
      "cytoplasm": 6239,
      "junction": 6240,
      "hol": 6241,
      "growing": 6242,
      "diffusion": 6243,
      "##tenance": 6244,
      "schiz": 6245,
      "mill": 6246,
      "vessels": 6247,
      "diastolic": 6248,
      "epile": 6249,
      "mi": 6250,
      "surge": 6251,
      "cab": 6252,
      "##ogram": 6253,
      "threshold": 6254,
      "sustained": 6255,
      "substantial": 6256,
      "maintenance": 6257,
      "har": 6258,
      "##ank": 6259,
      "expans": 6260,
      "spectrom": 6261,
      "lang": 6262,
      "reconstruction": 6263,
      "inhibit": 6264,
      "phenomen": 6265,
      "unable": 6266,
      "##load": 6267,
      "accel": 6268,
      "peep": 6269,
      "satur": 6270,
      "nerv": 6271,
      "mmp": 6272,
      "##hr": 6273,
      "musc": 6274,
      "##ream": 6275,
      "dialysis": 6276,
      "##anging": 6277,
      "velocity": 6278,
      "uter": 6279,
      "tel": 6280,
      "symm": 6281,
      "elevation": 6282,
      "labeled": 6283,
      "trach": 6284,
      "ts": 6285,
      "##care": 6286,
      "##ighted": 6287,
      "technology": 6288,
      "spi": 6289,
      "hydrogen": 6290,
      "department": 6291,
      "##treatment": 6292,
      "thin": 6293,
      "vap": 6294,
      "und": 6295,
      "pathology": 6296,
      "##assium": 6297,
      "sided": 6298,
      "thirty": 6299,
      "polar": 6300,
      "draw": 6301,
      "##nt": 6302,
      "void": 6303,
      "hcv": 6304,
      "atrium": 6305,
      "##rag": 6306,
      "chf": 6307,
      "##eting": 6308,
      "potassium": 6309,
      "##oglyc": 6310,
      "##a1": 6311,
      "neutroph": 6312,
      "computer": 6313,
      "whose": 6314,
      "relax": 6315,
      "primarily": 6316,
      "obstruction": 6317,
      "##acchar": 6318,
      "progressive": 6319,
      "fiber": 6320,
      "ptt": 6321,
      "##ectal": 6322,
      "dehyd": 6323,
      "neonatal": 6324,
      "##cm": 6325,
      "regurgitation": 6326,
      "exchange": 6327,
      "reliable": 6328,
      "##rophic": 6329,
      "cruc": 6330,
      "##pine": 6331,
      "##opic": 6332,
      "smo": 6333,
      "tit": 6334,
      "##aterally": 6335,
      "others": 6336,
      "##atib": 6337,
      "wal": 6338,
      "pelvis": 6339,
      "longitud": 6340,
      "hospitals": 6341,
      "nad": 6342,
      "##esh": 6343,
      "##oin": 6344,
      "morphine": 6345,
      "pip": 6346,
      "represents": 6347,
      "ker": 6348,
      "nam": 6349,
      "dilated": 6350,
      "soluble": 6351,
      "##ione": 6352,
      "##ellar": 6353,
      "bab": 6354,
      "parallel": 6355,
      "##eb": 6356,
      "##ococcus": 6357,
      "circum": 6358,
      "##draw": 6359,
      "preven": 6360,
      "bypass": 6361,
      "axis": 6362,
      "##imer": 6363,
      "hab": 6364,
      "seem": 6365,
      "plate": 6366,
      "##ni": 6367,
      "bul": 6368,
      "opac": 6369,
      "predictors": 6370,
      "choice": 6371,
      "stop": 6372,
      "regen": 6373,
      "demonstrates": 6374,
      "withdraw": 6375,
      "##oline": 6376,
      "brief": 6377,
      "##kin": 6378,
      "elucid": 6379,
      "consult": 6380,
      "attach": 6381,
      "recommendations": 6382,
      "suitable": 6383,
      "##iaz": 6384,
      "perceived": 6385,
      "native": 6386,
      "died": 6387,
      "element": 6388,
      "sequencing": 6389,
      "serious": 6390,
      "ens": 6391,
      "limb": 6392,
      "##oxy": 6393,
      "follows": 6394,
      "preparation": 6395,
      "thym": 6396,
      "cortic": 6397,
      "fentanyl": 6398,
      "meta": 6399,
      "##thern": 6400,
      "phyl": 6401,
      "international": 6402,
      "thought": 6403,
      "##aper": 6404,
      "##leuk": 6405,
      "disposition": 6406,
      "##ivalent": 6407,
      "##17": 6408,
      "presents": 6409,
      "estimates": 6410,
      "##mitted": 6411,
      "antagonist": 6412,
      "fibrillation": 6413,
      "became": 6414,
      "cirrh": 6415,
      "volumes": 6416,
      "##ercul": 6417,
      "foot": 6418,
      "subtyp": 6419,
      "##uit": 6420,
      "pros": 6421,
      "##aries": 6422,
      "risks": 6423,
      "promin": 6424,
      "inclusion": 6425,
      "swit": 6426,
      "perme": 6427,
      "typical": 6428,
      "##try": 6429,
      "smooth": 6430,
      "##thal": 6431,
      "##osomal": 6432,
      "autom": 6433,
      "oriented": 6434,
      "channels": 6435,
      "achieve": 6436,
      "dopamine": 6437,
      "tachycardia": 6438,
      "reverse": 6439,
      "termin": 6440,
      "##ocardi": 6441,
      "fixed": 6442,
      "antioxidant": 6443,
      "##operatively": 6444,
      "sulfate": 6445,
      "bases": 6446,
      "##opa": 6447,
      "fen": 6448,
      "defect": 6449,
      "##ament": 6450,
      "diversity": 6451,
      "complication": 6452,
      "##rich": 6453,
      "##stream": 6454,
      "positively": 6455,
      "hydroxy": 6456,
      "##lim": 6457,
      "extracted": 6458,
      "##rate": 6459,
      "receive": 6460,
      "sensory": 6461,
      "##elf": 6462,
      "initiation": 6463,
      "invasion": 6464,
      "##rous": 6465,
      "atheroscler": 6466,
      "##unding": 6467,
      "##be": 6468,
      "depth": 6469,
      "##urrent": 6470,
      "wet": 6471,
      "commands": 6472,
      "transpor": 6473,
      "anemia": 6474,
      "prediction": 6475,
      "##anth": 6476,
      "retinal": 6477,
      "chloride": 6478,
      "subject": 6479,
      "inters": 6480,
      "green": 6481,
      "##she": 6482,
      "qualit": 6483,
      "##avi": 6484,
      "optical": 6485,
      "analyze": 6486,
      "##get": 6487,
      "##read": 6488,
      "psychological": 6489,
      "intubation": 6490,
      "delta": 6491,
      "##cribed": 6492,
      "nodes": 6493,
      "dex": 6494,
      "chinese": 6495,
      "##athy": 6496,
      "pack": 6497,
      "monitored": 6498,
      "##igen": 6499,
      "mb": 6500,
      "gab": 6501,
      "cares": 6502,
      "pn": 6503,
      "influenced": 6504,
      "sho": 6505,
      "deficient": 6506,
      "excre": 6507,
      "##gans": 6508,
      "promote": 6509,
      "occas": 6510,
      "murm": 6511,
      "dele": 6512,
      "interpretation": 6513,
      "##yros": 6514,
      "##ested": 6515,
      "concern": 6516,
      "clearly": 6517,
      "healthcare": 6518,
      "sufficient": 6519,
      "implementation": 6520,
      "presenting": 6521,
      "neurologic": 6522,
      "dip": 6523,
      "sedation": 6524,
      "vegf": 6525,
      "##factory": 6526,
      "antig": 6527,
      "ranging": 6528,
      "focused": 6529,
      "decreases": 6530,
      "gir": 6531,
      "##mediately": 6532,
      "##genic": 6533,
      "twice": 6534,
      "expansion": 6535,
      "nervous": 6536,
      "behaviors": 6537,
      "absent": 6538,
      "##rof": 6539,
      "kda": 6540,
      "ldl": 6541,
      "1000": 6542,
      "sched": 6543,
      "cef": 6544,
      "japan": 6545,
      "commerc": 6546,
      "excluded": 6547,
      "nk": 6548,
      "sampling": 6549,
      "adjacent": 6550,
      "tur": 6551,
      "elic": 6552,
      "rise": 6553,
      "immediately": 6554,
      "enrich": 6555,
      "gc": 6556,
      "concluded": 6557,
      "largely": 6558,
      "##eps": 6559,
      "##hc": 6560,
      "echocardi": 6561,
      "sept": 6562,
      "peg": 6563,
      "opi": 6564,
      "gradient": 6565,
      "teach": 6566,
      "decline": 6567,
      "muscles": 6568,
      "floor": 6569,
      "assemb": 6570,
      "au": 6571,
      "parent": 6572,
      "nucleotide": 6573,
      "interleuk": 6574,
      "dominant": 6575,
      "contain": 6576,
      "newly": 6577,
      "p2": 6578,
      "therapies": 6579,
      "your": 6580,
      "devices": 6581,
      "##rocytes": 6582,
      "nurses": 6583,
      "emotional": 6584,
      "insuff": 6585,
      "##ows": 6586,
      "##sheet": 6587,
      "##uria": 6588,
      "stor": 6589,
      "volt": 6590,
      "##19": 6591,
      "correlations": 6592,
      "gram": 6593,
      "cham": 6594,
      "bilaterally": 6595,
      "consolidation": 6596,
      "follic": 6597,
      "##ecal": 6598,
      "##east": 6599,
      "##aria": 6600,
      "synthesized": 6601,
      "variations": 6602,
      "clearance": 6603,
      "##ises": 6604,
      "discussion": 6605,
      "detailed": 6606,
      "mediastinal": 6607,
      "neurological": 6608,
      "cam": 6609,
      "longitudinal": 6610,
      "shape": 6611,
      "197": 6612,
      "fibrin": 6613,
      "tib": 6614,
      "lactate": 6615,
      "3h": 6616,
      "assigned": 6617,
      "##ime": 6618,
      "precurs": 6619,
      "subunit": 6620,
      "mother": 6621,
      "hcc": 6622,
      "nanoparticles": 6623,
      "cytokine": 6624,
      "ground": 6625,
      "words": 6626,
      "flowsheet": 6627,
      "latter": 6628,
      "##tics": 6629,
      "suppression": 6630,
      "metastases": 6631,
      "##works": 6632,
      "amt": 6633,
      "tric": 6634,
      "##gt": 6635,
      "colum": 6636,
      "contrac": 6637,
      "##osomes": 6638,
      "pregnant": 6639,
      "younger": 6640,
      "##urally": 6641,
      "united": 6642,
      "validated": 6643,
      "bov": 6644,
      "encour": 6645,
      "##ocaine": 6646,
      "##certain": 6647,
      "echo": 6648,
      "##elled": 6649,
      "overnight": 6650,
      "##dm": 6651,
      "##back": 6652,
      "beneficial": 6653,
      "##eli": 6654,
      "##entical": 6655,
      "moth": 6656,
      "skeletal": 6657,
      "coupled": 6658,
      "schizophren": 6659,
      "interleukin": 6660,
      "reflect": 6661,
      "algorithm": 6662,
      "localization": 6663,
      "##ogens": 6664,
      "##argeting": 6665,
      "electronic": 6666,
      "retro": 6667,
      "bpm": 6668,
      "##lox": 6669,
      "metabolites": 6670,
      "propose": 6671,
      "probe": 6672,
      "localized": 6673,
      "bis": 6674,
      "tail": 6675,
      "ib": 6676,
      "mouth": 6677,
      "assum": 6678,
      "south": 6679,
      "competi": 6680,
      "nitrogen": 6681,
      "##osing": 6682,
      "industr": 6683,
      "expressing": 6684,
      "synthetic": 6685,
      "subcutaneous": 6686,
      "interesting": 6687,
      "##isions": 6688,
      "##ban": 6689,
      "magnitude": 6690,
      "##ocarcin": 6691,
      "visit": 6692,
      "##itory": 6693,
      "stomach": 6694,
      "incubation": 6695,
      "delay": 6696,
      "##ements": 6697,
      "error": 6698,
      "##time": 6699,
      "##ostomy": 6700,
      "consisted": 6701,
      "dorsal": 6702,
      "targeting": 6703,
      "fibers": 6704,
      "##tingu": 6705,
      "counter": 6706,
      "otherwise": 6707,
      "zn": 6708,
      "recognized": 6709,
      "anesthesia": 6710,
      "antigens": 6711,
      "pending": 6712,
      "lam": 6713,
      "hla": 6714,
      "embol": 6715,
      "##enyl": 6716,
      "tryp": 6717,
      "diver": 6718,
      "##activation": 6719,
      "irradiation": 6720,
      "scanning": 6721,
      "tools": 6722,
      "lymphoma": 6723,
      "theore": 6724,
      "##oxyl": 6725,
      "mono": 6726,
      "comprehensive": 6727,
      "sf": 6728,
      "ile": 6729,
      "bile": 6730,
      "tubercul": 6731,
      "elis": 6732,
      "transfusion": 6733,
      "contribution": 6734,
      "identical": 6735,
      "py": 6736,
      "##enchymal": 6737,
      "aware": 6738,
      "proton": 6739,
      "interf": 6740,
      "gland": 6741,
      "trip": 6742,
      "##bac": 6743,
      "persons": 6744,
      "##ners": 6745,
      "thi": 6746,
      "##ofol": 6747,
      "p53": 6748,
      "radio": 6749,
      "bip": 6750,
      "medial": 6751,
      "2000": 6752,
      "vessel": 6753,
      "##organ": 6754,
      "practices": 6755,
      "poorly": 6756,
      "sple": 6757,
      "refr": 6758,
      "framework": 6759,
      "##ped": 6760,
      "ions": 6761,
      "vt": 6762,
      "##rose": 6763,
      "silic": 6764,
      "occlusion": 6765,
      "##irect": 6766,
      "conjug": 6767,
      "cytos": 6768,
      "##phrine": 6769,
      "exhibit": 6770,
      "neither": 6771,
      "##olds": 6772,
      "radiology": 6773,
      "occurring": 6774,
      "##okinetic": 6775,
      "black": 6776,
      "derm": 6777,
      "##arin": 6778,
      "##ozyg": 6779,
      "distingu": 6780,
      "documented": 6781,
      "##arse": 6782,
      "staff": 6783,
      "coefficient": 6784,
      "monocl": 6785,
      "complaint": 6786,
      "sen": 6787,
      "lipoprotein": 6788,
      "##hs": 6789,
      "childhood": 6790,
      "numerous": 6791,
      "thermal": 6792,
      "propofol": 6793,
      "##cher": 6794,
      "aneurysm": 6795,
      "abstr": 6796,
      "workers": 6797,
      "allele": 6798,
      "leak": 6799,
      "cyst": 6800,
      "variants": 6801,
      "##itant": 6802,
      "##lux": 6803,
      "supr": 6804,
      "hydroph": 6805,
      "rehabil": 6806,
      "cd8": 6807,
      "bleed": 6808,
      "stimulus": 6809,
      "coag": 6810,
      "displayed": 6811,
      "gm": 6812,
      "cabg": 6813,
      "disturb": 6814,
      "explain": 6815,
      "##ranial": 6816,
      "fing": 6817,
      "amplitude": 6818,
      "understood": 6819,
      "pericardial": 6820,
      "solutions": 6821,
      "decl": 6822,
      "colorectal": 6823,
      "chief": 6824,
      "##unct": 6825,
      "functioning": 6826,
      "surfaces": 6827,
      "keep": 6828,
      "##entia": 6829,
      "psychiatric": 6830,
      "supported": 6831,
      "bac": 6832,
      "##usp": 6833,
      "101": 6834,
      "allowed": 6835,
      "unrem": 6836,
      "patent": 6837,
      "##beta": 6838,
      "subcl": 6839,
      "##rium": 6840,
      "co2": 6841,
      "##ryl": 6842,
      "dro": 6843,
      "extracts": 6844,
      "encoding": 6845,
      "effectively": 6846,
      "directed": 6847,
      "branch": 6848,
      "dual": 6849,
      "##uge": 6850,
      "tone": 6851,
      "summary": 6852,
      "nr": 6853,
      "indirect": 6854,
      "influenz": 6855,
      "storage": 6856,
      "accompanied": 6857,
      "suppressed": 6858,
      "unremarkable": 6859,
      "##ete": 6860,
      "sb": 6861,
      "glutam": 6862,
      "hydroly": 6863,
      "coverage": 6864,
      "satisfaction": 6865,
      "whom": 6866,
      "2010": 6867,
      "##ware": 6868,
      "\u03bcm": 6869,
      "house": 6870,
      "##oa": 6871,
      "mothers": 6872,
      "##ologists": 6873,
      "##ortun": 6874,
      "##uvant": 6875,
      "lowest": 6876,
      "npo": 6877,
      "rod": 6878,
      "##icular": 6879,
      "resting": 6880,
      "opportun": 6881,
      "##icin": 6882,
      "begin": 6883,
      "ket": 6884,
      "explained": 6885,
      "clar": 6886,
      "clinici": 6887,
      "rhe": 6888,
      "dementia": 6889,
      "nause": 6890,
      "abuse": 6891,
      "##olin": 6892,
      "economic": 6893,
      "diarrh": 6894,
      "##ze": 6895,
      "mineral": 6896,
      "polymorphism": 6897,
      "quad": 6898,
      "inhal": 6899,
      "ethn": 6900,
      "jun": 6901,
      "characterize": 6902,
      "tyros": 6903,
      "producing": 6904,
      "burden": 6905,
      "##ycl": 6906,
      "congen": 6907,
      "langu": 6908,
      "##atig": 6909,
      "gap": 6910,
      "tex": 6911,
      "hearing": 6912,
      "seizure": 6913,
      "##anine": 6914,
      "dependence": 6915,
      "drains": 6916,
      "##ilateral": 6917,
      "anth": 6918,
      "monoclonal": 6919,
      "##tively": 6920,
      "immunore": 6921,
      "reliability": 6922,
      "##rotein": 6923,
      "adherence": 6924,
      "tobac": 6925,
      "##alpha": 6926,
      "##lip": 6927,
      "mer": 6928,
      "crucial": 6929,
      "volunte": 6930,
      "fatig": 6931,
      "mell": 6932,
      "##iral": 6933,
      "hpv": 6934,
      "pretreatment": 6935,
      "deaths": 6936,
      "cn": 6937,
      "tobacco": 6938,
      "voiding": 6939,
      "worsening": 6940,
      "reached": 6941,
      "micrograms": 6942,
      "##ocytosis": 6943,
      "limitations": 6944,
      "retention": 6945,
      "transduc": 6946,
      "kapp": 6947,
      "##angl": 6948,
      "plastic": 6949,
      "views": 6950,
      "vancomycin": 6951,
      "spleen": 6952,
      "film": 6953,
      "##pg": 6954,
      "##entricular": 6955,
      "adrenal": 6956,
      "##rox": 6957,
      "noise": 6958,
      "planning": 6959,
      "radiotherapy": 6960,
      "separation": 6961,
      "discontin": 6962,
      "compli": 6963,
      "kill": 6964,
      "fal": 6965,
      "##atch": 6966,
      "elisa": 6967,
      "axial": 6968,
      "##ensions": 6969,
      "##eless": 6970,
      "##iveness": 6971,
      "characterization": 6972,
      "##atter": 6973,
      "explored": 6974,
      "robust": 6975,
      "##oag": 6976,
      "histopath": 6977,
      "vector": 6978,
      "##acer": 6979,
      "acceler": 6980,
      "favor": 6981,
      "##icles": 6982,
      "nar": 6983,
      "nausea": 6984,
      "kinetics": 6985,
      "rehabilitation": 6986,
      "conges": 6987,
      "etiology": 6988,
      "mand": 6989,
      "minimum": 6990,
      "spectrometry": 6991,
      "hard": 6992,
      "retrospectively": 6993,
      "tri": 6994,
      "organisms": 6995,
      "controlling": 6996,
      "validity": 6997,
      "##eptide": 6998,
      "##tes": 6999,
      "##rd": 7000,
      "tolerating": 7001,
      "ring": 7002,
      "spread": 7003,
      "##asons": 7004,
      "manifest": 7005,
      "upreg": 7006,
      "##onate": 7007,
      "extra": 7008,
      "hor": 7009,
      "##pase": 7010,
      "##atid": 7011,
      "##ulum": 7012,
      "speed": 7013,
      "salt": 7014,
      "fresh": 7015,
      "##lobulin": 7016,
      "season": 7017,
      "dispers": 7018,
      "hold": 7019,
      "transcriptional": 7020,
      "technical": 7021,
      "reproductive": 7022,
      "zone": 7023,
      "gold": 7024,
      "facial": 7025,
      "disability": 7026,
      "son": 7027,
      "##versely": 7028,
      "cirrhosis": 7029,
      "steroid": 7030,
      "nutritional": 7031,
      "##40": 7032,
      "##chron": 7033,
      "##mb": 7034,
      "rd": 7035,
      "##iologic": 7036,
      "##ensin": 7037,
      "granul": 7038,
      "##orter": 7039,
      "spectra": 7040,
      "conversion": 7041,
      "pelvic": 7042,
      "ef": 7043,
      "drop": 7044,
      "##avy": 7045,
      "##atase": 7046,
      "emission": 7047,
      "contains": 7048,
      "tmax": 7049,
      "##micro": 7050,
      "agonist": 7051,
      "give": 7052,
      "frequencies": 7053,
      "immediate": 7054,
      "##iness": 7055,
      "lumbar": 7056,
      "implantation": 7057,
      "outpatient": 7058,
      "organs": 7059,
      "##25": 7060,
      "easily": 7061,
      "diverse": 7062,
      "##transfer": 7063,
      "seed": 7064,
      "depending": 7065,
      "separate": 7066,
      "circulating": 7067,
      "sti": 7068,
      "held": 7069,
      "simultaneously": 7070,
      "##term": 7071,
      "mis": 7072,
      "##ades": 7073,
      "dev": 7074,
      "affecting": 7075,
      "dy": 7076,
      "fab": 7077,
      "bovine": 7078,
      "mellitus": 7079,
      "##issions": 7080,
      "##udes": 7081,
      "example": 7082,
      "cond": 7083,
      "##illance": 7084,
      "antimicro": 7085,
      "veget": 7086,
      "##ued": 7087,
      "probability": 7088,
      "cd3": 7089,
      "160": 7090,
      "barrier": 7091,
      "aging": 7092,
      "determining": 7093,
      "pna": 7094,
      "poll": 7095,
      "##ovirus": 7096,
      "resources": 7097,
      "reporting": 7098,
      "recording": 7099,
      "dn": 7100,
      "tender": 7101,
      "modification": 7102,
      "intracranial": 7103,
      "gf": 7104,
      "arrest": 7105,
      "##wide": 7106,
      "##aemia": 7107,
      "inoc": 7108,
      "##weight": 7109,
      "similarly": 7110,
      "##otypic": 7111,
      "morning": 7112,
      "decreasing": 7113,
      "murmur": 7114,
      "challenges": 7115,
      "particle": 7116,
      "networks": 7117,
      "capsule": 7118,
      "deform": 7119,
      "leukemia": 7120,
      "cycles": 7121,
      "##upp": 7122,
      "segments": 7123,
      "symptomatic": 7124,
      "2d": 7125,
      "##tructive": 7126,
      "users": 7127,
      "mostly": 7128,
      "mutants": 7129,
      "knock": 7130,
      "tuberculosis": 7131,
      "rp": 7132,
      "facilitate": 7133,
      "##yte": 7134,
      "##thetic": 7135,
      "strept": 7136,
      "##mitt": 7137,
      "##izations": 7138,
      "##loxacin": 7139,
      "cta": 7140,
      "restricted": 7141,
      "surveillance": 7142,
      "outs": 7143,
      "considerable": 7144,
      "qualitative": 7145,
      "personal": 7146,
      "compart": 7147,
      "possess": 7148,
      "pairs": 7149,
      "vul": 7150,
      "suic": 7151,
      "distended": 7152,
      "ni": 7153,
      "consequences": 7154,
      "sections": 7155,
      "yeast": 7156,
      "##uclear": 7157,
      "bias": 7158,
      "##oic": 7159,
      "trunc": 7160,
      "speech": 7161,
      "centers": 7162,
      "cul": 7163,
      "microbial": 7164,
      "vaccination": 7165,
      "infusions": 7166,
      "urban": 7167,
      "gt": 7168,
      "##uting": 7169,
      "heavy": 7170,
      "##queous": 7171,
      "track": 7172,
      "attenuated": 7173,
      "rating": 7174,
      "aspirin": 7175,
      "fixation": 7176,
      "standardized": 7177,
      "compression": 7178,
      "chamber": 7179,
      "integrated": 7180,
      "introduced": 7181,
      "language": 7182,
      "stat": 7183,
      "##osity": 7184,
      "##acheal": 7185,
      "om": 7186,
      "contour": 7187,
      "npn": 7188,
      "##24": 7189,
      "##ipl": 7190,
      "recruited": 7191,
      "lar": 7192,
      "insertion": 7193,
      "##sa": 7194,
      "neo": 7195,
      "equivalent": 7196,
      "decomp": 7197,
      "schizophrenia": 7198,
      "##ohyd": 7199,
      "##ught": 7200,
      "##omegal": 7201,
      "cod": 7202,
      "fact": 7203,
      "cg": 7204,
      "spin": 7205,
      "fields": 7206,
      "arthritis": 7207,
      "##forms": 7208,
      "shorter": 7209,
      "original": 7210,
      "hypertensive": 7211,
      "ethyl": 7212,
      "##geal": 7213,
      "glycemic": 7214,
      "##usive": 7215,
      "december": 7216,
      "attempt": 7217,
      "aqueous": 7218,
      "glomer": 7219,
      "includes": 7220,
      "prelim": 7221,
      "estrogen": 7222,
      "accoun": 7223,
      "operating": 7224,
      "subjected": 7225,
      "diges": 7226,
      "##ichia": 7227,
      "##neal": 7228,
      "##onucle": 7229,
      "ace": 7230,
      "crystall": 7231,
      "attit": 7232,
      "challeng": 7233,
      "lh": 7234,
      "biomarkers": 7235,
      "##ann": 7236,
      "##insic": 7237,
      "variance": 7238,
      "lumen": 7239,
      "nearly": 7240,
      "##azine": 7241,
      "aggressive": 7242,
      "availability": 7243,
      "prominent": 7244,
      "fractions": 7245,
      "pharmacological": 7246,
      "\u03bcg": 7247,
      "institution": 7248,
      "fatigue": 7249,
      "##onas": 7250,
      "esophageal": 7251,
      "newbor": 7252,
      "##ton": 7253,
      "##oprol": 7254,
      "buff": 7255,
      "##usal": 7256,
      "affects": 7257,
      "sedim": 7258,
      "sph": 7259,
      "extremity": 7260,
      "micu": 7261,
      "portal": 7262,
      "forty": 7263,
      "veh": 7264,
      "hematoma": 7265,
      "capable": 7266,
      "##aden": 7267,
      "pil": 7268,
      "efforts": 7269,
      "extension": 7270,
      "eb": 7271,
      "displac": 7272,
      "viability": 7273,
      "##atology": 7274,
      "denies": 7275,
      "hair": 7276,
      "induces": 7277,
      "2012": 7278,
      "influenza": 7279,
      "lin": 7280,
      "engine": 7281,
      "##ads": 7282,
      "art": 7283,
      "varying": 7284,
      "electrical": 7285,
      "dend": 7286,
      "db": 7287,
      "assessing": 7288,
      "comparisons": 7289,
      "predominantly": 7290,
      "fd": 7291,
      "substance": 7292,
      "##oden": 7293,
      "untreated": 7294,
      "identifying": 7295,
      "##itol": 7296,
      "rout": 7297,
      "replication": 7298,
      "mature": 7299,
      "ages": 7300,
      "sir": 7301,
      "2009": 7302,
      "intermitt": 7303,
      "wk": 7304,
      "##anded": 7305,
      "##icu": 7306,
      "analges": 7307,
      "drinking": 7308,
      "tax": 7309,
      "skills": 7310,
      "##train": 7311,
      "concom": 7312,
      "##aryngeal": 7313,
      "##b1": 7314,
      "##igible": 7315,
      "suspected": 7316,
      "##mental": 7317,
      "bic": 7318,
      "hex": 7319,
      "bd": 7320,
      "##ostasis": 7321,
      "referred": 7322,
      "##plasia": 7323,
      "##urance": 7324,
      "cartil": 7325,
      "voltage": 7326,
      "##atif": 7327,
      "occasion": 7328,
      "duct": 7329,
      "##cp": 7330,
      "laparoscopic": 7331,
      "##exp": 7332,
      "yester": 7333,
      "##rounding": 7334,
      "methodology": 7335,
      "conserved": 7336,
      "fs": 7337,
      "european": 7338,
      "incision": 7339,
      "##oside": 7340,
      "reper": 7341,
      "nutri": 7342,
      "asymp": 7343,
      "##aphyl": 7344,
      "##osens": 7345,
      "overexpression": 7346,
      "rn": 7347,
      "substrates": 7348,
      "##iding": 7349,
      "autoimmun": 7350,
      "gon": 7351,
      "mammalian": 7352,
      "##ications": 7353,
      "dissection": 7354,
      "adop": 7355,
      "transcript": 7356,
      "overl": 7357,
      "tg": 7358,
      "##ocks": 7359,
      "ho": 7360,
      "yesterday": 7361,
      "pyl": 7362,
      "hospitalization": 7363,
      "##actic": 7364,
      "surviv": 7365,
      "infr": 7366,
      "persp": 7367,
      "intersti": 7368,
      "murine": 7369,
      "ami": 7370,
      "si": 7371,
      "discre": 7372,
      "##rect": 7373,
      "concomitant": 7374,
      "##ocr": 7375,
      "vom": 7376,
      "rf": 7377,
      "endoscopic": 7378,
      "surrounding": 7379,
      "##ulmonary": 7380,
      "##ray": 7381,
      "mcg": 7382,
      "accep": 7383,
      "austr": 7384,
      "phospholip": 7385,
      "express": 7386,
      "portion": 7387,
      "ba": 7388,
      "modulation": 7389,
      "cytoch": 7390,
      "border": 7391,
      "##dehyd": 7392,
      "articles": 7393,
      "htn": 7394,
      "pharmacokinetic": 7395,
      "instrument": 7396,
      "trim": 7397,
      "counts": 7398,
      "belie": 7399,
      "candidate": 7400,
      "persist": 7401,
      "cum": 7402,
      "102": 7403,
      "nico": 7404,
      "sarc": 7405,
      "investigations": 7406,
      "palp": 7407,
      "##38": 7408,
      "##illus": 7409,
      "serve": 7410,
      "seizures": 7411,
      "unli": 7412,
      "2011": 7413,
      "ett": 7414,
      "composite": 7415,
      "abnormality": 7416,
      "melanoma": 7417,
      "prevented": 7418,
      "reactivity": 7419,
      "treating": 7420,
      "##olec": 7421,
      "tyrosine": 7422,
      "##rown": 7423,
      "complicated": 7424,
      "##oplasty": 7425,
      "attributed": 7426,
      "pron": 7427,
      "depressive": 7428,
      "fet": 7429,
      "pigs": 7430,
      "embryos": 7431,
      "teeth": 7432,
      "get": 7433,
      "methylation": 7434,
      "blocked": 7435,
      "##ices": 7436,
      "##iciently": 7437,
      "fluids": 7438,
      "gli": 7439,
      "##oints": 7440,
      "ln": 7441,
      "fragments": 7442,
      "rural": 7443,
      "##otropic": 7444,
      "socio": 7445,
      "relev": 7446,
      "miss": 7447,
      "compliance": 7448,
      "peroxid": 7449,
      "own": 7450,
      "##uf": 7451,
      "thrombosis": 7452,
      "theoretical": 7453,
      "improvements": 7454,
      "nac": 7455,
      "leth": 7456,
      "pathogen": 7457,
      "gaba": 7458,
      "sul": 7459,
      "negatively": 7460,
      "evoked": 7461,
      "difficulty": 7462,
      "deficits": 7463,
      "##veolar": 7464,
      "simulation": 7465,
      "anticoag": 7466,
      "2013": 7467,
      "polymorphisms": 7468,
      "##mentation": 7469,
      "##uv": 7470,
      "issue": 7471,
      "pure": 7472,
      "adsorption": 7473,
      "shap": 7474,
      "##rt": 7475,
      "china": 7476,
      "relevance": 7477,
      "gs": 7478,
      "allel": 7479,
      "##oresis": 7480,
      "uncertain": 7481,
      "pump": 7482,
      "policy": 7483,
      "deletion": 7484,
      "trace": 7485,
      "supplementation": 7486,
      "temperatures": 7487,
      "##oxin": 7488,
      "chick": 7489,
      "mim": 7490,
      "parameter": 7491,
      "##ears": 7492,
      "hybridization": 7493,
      "epithelium": 7494,
      "assisted": 7495,
      "released": 7496,
      "glycop": 7497,
      "absol": 7498,
      "nitric": 7499,
      "regulate": 7500,
      "feature": 7501,
      "escher": 7502,
      "##ocomp": 7503,
      "sedated": 7504,
      "##angi": 7505,
      "beds": 7506,
      "zinc": 7507,
      "##ophosph": 7508,
      "weaned": 7509,
      "##ensus": 7510,
      "predictor": 7511,
      "cdna": 7512,
      "loading": 7513,
      "##going": 7514,
      "volunteers": 7515,
      "fibroblasts": 7516,
      "recipients": 7517,
      "movements": 7518,
      "escherichia": 7519,
      "##omet": 7520,
      "pmh": 7521,
      "hdl": 7522,
      "distributed": 7523,
      "utilization": 7524,
      "thickened": 7525,
      "biliary": 7526,
      "titr": 7527,
      "##atically": 7528,
      "##azol": 7529,
      "iu": 7530,
      "north": 7531,
      "correction": 7532,
      "mixture": 7533,
      "ank": 7534,
      "residents": 7535,
      "mast": 7536,
      "coding": 7537,
      "##ocarcinoma": 7538,
      "interviews": 7539,
      "##opo": 7540,
      "visualized": 7541,
      "##gi": 7542,
      "excretion": 7543,
      "##icated": 7544,
      "fluorescent": 7545,
      "causing": 7546,
      "apoptotic": 7547,
      "weighted": 7548,
      "biof": 7549,
      "##oblast": 7550,
      "sets": 7551,
      "##ry": 7552,
      "congenital": 7553,
      "lep": 7554,
      "coch": 7555,
      "war": 7556,
      "##ulus": 7557,
      "c5": 7558,
      "antimicrobial": 7559,
      "600": 7560,
      "reperfusion": 7561,
      "align": 7562,
      "thereby": 7563,
      "##allow": 7564,
      "##down": 7565,
      "rheum": 7566,
      "retr": 7567,
      "modeling": 7568,
      "perception": 7569,
      "mucosal": 7570,
      "##tomatic": 7571,
      "##ani": 7572,
      "phases": 7573,
      "display": 7574,
      "restriction": 7575,
      "angiography": 7576,
      "traits": 7577,
      "002": 7578,
      "preliminary": 7579,
      "mucosa": 7580,
      "evident": 7581,
      "clusters": 7582,
      "just": 7583,
      "tor": 7584,
      "##vascular": 7585,
      "eeg": 7586,
      "iod": 7587,
      "180": 7588,
      "gross": 7589,
      "##ife": 7590,
      "initiated": 7591,
      "2008": 7592,
      "##fe": 7593,
      "hydr": 7594,
      "hypertrophy": 7595,
      "saliv": 7596,
      "belong": 7597,
      "dysp": 7598,
      "fewer": 7599,
      "##ascul": 7600,
      "gd": 7601,
      "charge": 7602,
      "starting": 7603,
      "constructed": 7604,
      "tt": 7605,
      "superf": 7606,
      "rectal": 7607,
      "stratif": 7608,
      "glutath": 7609,
      "multic": 7610,
      "variant": 7611,
      "interstitial": 7612,
      "radiographs": 7613,
      "adjustment": 7614,
      "manip": 7615,
      "deviation": 7616,
      "curves": 7617,
      "##elec": 7618,
      "##au": 7619,
      "pitu": 7620,
      "##teine": 7621,
      "apical": 7622,
      "cyclic": 7623,
      "##70": 7624,
      "2014": 7625,
      "smokers": 7626,
      "cry": 7627,
      "simulations": 7628,
      "##orous": 7629,
      "##abs": 7630,
      "abscess": 7631,
      "##ocytic": 7632,
      "implicated": 7633,
      "meds": 7634,
      "##uch": 7635,
      "donors": 7636,
      "actions": 7637,
      "opacity": 7638,
      "transformation": 7639,
      "##60": 7640,
      "lp": 7641,
      "coarse": 7642,
      "cla": 7643,
      "comparative": 7644,
      "tasks": 7645,
      "narrow": 7646,
      "gangl": 7647,
      "##uspid": 7648,
      "cold": 7649,
      "deposition": 7650,
      "instruc": 7651,
      "expect": 7652,
      "threat": 7653,
      "items": 7654,
      "evaluating": 7655,
      "heme": 7656,
      "##titis": 7657,
      "multid": 7658,
      "cartilage": 7659,
      "metall": 7660,
      "lamin": 7661,
      "##vo": 7662,
      "differentiated": 7663,
      "pressures": 7664,
      "detectable": 7665,
      "graph": 7666,
      "mobility": 7667,
      "mening": 7668,
      "isolation": 7669,
      "##002": 7670,
      "heterogeneity": 7671,
      "empir": 7672,
      "steps": 7673,
      "##osynthesis": 7674,
      "moderately": 7675,
      "cytotoxic": 7676,
      "reasons": 7677,
      "progen": 7678,
      "consisting": 7679,
      "##transferase": 7680,
      "live": 7681,
      "vertebral": 7682,
      "##tum": 7683,
      "##ws": 7684,
      "osteop": 7685,
      "cardiomy": 7686,
      "glutathione": 7687,
      "##zing": 7688,
      "increasingly": 7689,
      "meeting": 7690,
      "experiences": 7691,
      "ideal": 7692,
      "pup": 7693,
      "comput": 7694,
      "cns": 7695,
      "##omed": 7696,
      "consistently": 7697,
      "##water": 7698,
      "##nel": 7699,
      "##ley": 7700,
      "caff": 7701,
      "considering": 7702,
      "hypothesized": 7703,
      "ongoing": 7704,
      "nonc": 7705,
      "summar": 7706,
      "advantage": 7707,
      "categories": 7708,
      "asymptomatic": 7709,
      "##ll": 7710,
      "clim": 7711,
      "##otracheal": 7712,
      "##ril": 7713,
      "pall": 7714,
      "concerns": 7715,
      "##kg": 7716,
      "##isp": 7717,
      "composed": 7718,
      "asymm": 7719,
      "susceptible": 7720,
      "indices": 7721,
      "episode": 7722,
      "ans": 7723,
      "born": 7724,
      "relaxation": 7725,
      "injections": 7726,
      "##ready": 7727,
      "estr": 7728,
      "pituitary": 7729,
      "##oms": 7730,
      "african": 7731,
      "errors": 7732,
      "whee": 7733,
      "recovered": 7734,
      "ball": 7735,
      "##itting": 7736,
      "sob": 7737,
      "105": 7738,
      "nd": 7739,
      "##aken": 7740,
      "##astatin": 7741,
      "immunohistochemistry": 7742,
      "already": 7743,
      "absolute": 7744,
      "crystal": 7745,
      "2005": 7746,
      "adjuvant": 7747,
      "flav": 7748,
      "##odynamic": 7749,
      "glutamate": 7750,
      "parad": 7751,
      "aure": 7752,
      "correlate": 7753,
      "cuff": 7754,
      "outside": 7755,
      "version": 7756,
      "sera": 7757,
      "angiot": 7758,
      "column": 7759,
      "piv": 7760,
      "vide": 7761,
      "driven": 7762,
      "waste": 7763,
      "acad": 7764,
      "hence": 7765,
      "rig": 7766,
      "##ulose": 7767,
      "dissoci": 7768,
      "integrity": 7769,
      "caspase": 7770,
      "##min": 7771,
      "ger": 7772,
      "##ensities": 7773,
      "##dehyde": 7774,
      "##hou": 7775,
      "sensor": 7776,
      "2007": 7777,
      "updated": 7778,
      "flat": 7779,
      "phenyl": 7780,
      "swelling": 7781,
      "fist": 7782,
      "guided": 7783,
      "##nl": 7784,
      "subjective": 7785,
      "xen": 7786,
      "endotracheal": 7787,
      "##nis": 7788,
      "involves": 7789,
      "##ysacchar": 7790,
      "ju": 7791,
      "##atr": 7792,
      "nmr": 7793,
      "##isition": 7794,
      "truncated": 7795,
      "e2": 7796,
      "applic": 7797,
      "describes": 7798,
      "exer": 7799,
      "angiotensin": 7800,
      "##gl": 7801,
      "derivatives": 7802,
      "aids": 7803,
      "2015": 7804,
      "dram": 7805,
      "undert": 7806,
      "putative": 7807,
      "antis": 7808,
      "compens": 7809,
      "transgenic": 7810,
      "commercial": 7811,
      "reduces": 7812,
      "microbi": 7813,
      "##omical": 7814,
      "gave": 7815,
      "ultrason": 7816,
      "##abilities": 7817,
      "##ulative": 7818,
      "correspond": 7819,
      "feedback": 7820,
      "synthase": 7821,
      "##ilities": 7822,
      "##reci": 7823,
      "dd": 7824,
      "afeb": 7825,
      "genotypes": 7826,
      "aggregation": 7827,
      "loop": 7828,
      "generate": 7829,
      "responsive": 7830,
      "gover": 7831,
      "embryonic": 7832,
      "maintaining": 7833,
      "interc": 7834,
      "retic": 7835,
      "rabbit": 7836,
      "2006": 7837,
      "lipids": 7838,
      "define": 7839,
      "synaptic": 7840,
      "##uation": 7841,
      "005": 7842,
      "details": 7843,
      "software": 7844,
      "delivered": 7845,
      "always": 7846,
      "##bre": 7847,
      "##1a": 7848,
      "##emat": 7849,
      "trends": 7850,
      "##terone": 7851,
      "potentials": 7852,
      "worse": 7853,
      "gestation": 7854,
      "encephal": 7855,
      "bcl": 7856,
      "premature": 7857,
      "scientif": 7858,
      "locus": 7859,
      "wash": 7860,
      "penetr": 7861,
      "pathogens": 7862,
      "aureus": 7863,
      "communities": 7864,
      "filter": 7865,
      "steady": 7866,
      "acquisition": 7867,
      "libr": 7868,
      "##23": 7869,
      "nuclei": 7870,
      "extremely": 7871,
      "acetate": 7872,
      "visits": 7873,
      "gn": 7874,
      "finger": 7875,
      "gro": 7876,
      "glass": 7877,
      "gestational": 7878,
      "##opulmonary": 7879,
      "proved": 7880,
      "phenomenon": 7881,
      "immob": 7882,
      "wind": 7883,
      "phylogenetic": 7884,
      "withdrawal": 7885,
      "regulating": 7886,
      "unf": 7887,
      "heterogeneous": 7888,
      "##uous": 7889,
      "validation": 7890,
      "separated": 7891,
      "forming": 7892,
      "needle": 7893,
      "requirements": 7894,
      "reflex": 7895,
      "gauge": 7896,
      "inher": 7897,
      "input": 7898,
      "baby": 7899,
      "predicting": 7900,
      "blue": 7901,
      "diarrhea": 7902,
      "relapse": 7903,
      "epileps": 7904,
      "##amous": 7905,
      "platelets": 7906,
      "interface": 7907,
      "differed": 7908,
      "##ections": 7909,
      "lens": 7910,
      "corneal": 7911,
      "cytotoxicity": 7912,
      "true": 7913,
      "loops": 7914,
      "##aind": 7915,
      "cytochrome": 7916,
      "tricuspid": 7917,
      "suctioned": 7918,
      "rc": 7919,
      "##acerb": 7920,
      "contents": 7921,
      "strom": 7922,
      "##astom": 7923,
      "##aphrag": 7924,
      "##point": 7925,
      "maturation": 7926,
      "exacerb": 7927,
      "ecg": 7928,
      "bey": 7929,
      "shr": 7930,
      "rar": 7931,
      "viruses": 7932,
      "##loid": 7933,
      "##omegaly": 7934,
      "utility": 7935,
      "##oflu": 7936,
      "screen": 7937,
      "ablation": 7938,
      "beyond": 7939,
      "abstract": 7940,
      "intrinsic": 7941,
      "##zed": 7942,
      "pts": 7943,
      "##bb": 7944,
      "pathophys": 7945,
      "contraction": 7946,
      "endocrine": 7947,
      "##unt": 7948,
      "##inine": 7949,
      "##ophag": 7950,
      "##opy": 7951,
      "adaptation": 7952,
      "presum": 7953,
      "##ectors": 7954,
      "grown": 7955,
      "cmv": 7956,
      "103": 7957,
      "##adiol": 7958,
      "practical": 7959,
      "pancreas": 7960,
      "depends": 7961,
      "##sis": 7962,
      "##ifer": 7963,
      "caffe": 7964,
      "hemoglobin": 7965,
      "glycos": 7966,
      "appreci": 7967,
      "lytes": 7968,
      "diures": 7969,
      "analy": 7970,
      "hz": 7971,
      "catalytic": 7972,
      "osh": 7973,
      "electroly": 7974,
      "respondents": 7975,
      "immunosupp": 7976,
      "ligands": 7977,
      "lymphocyte": 7978,
      "eosin": 7979,
      "buil": 7980,
      "typically": 7981,
      "##ips": 7982,
      "beginning": 7983,
      "adenosine": 7984,
      "inner": 7985,
      "sevent": 7986,
      "definition": 7987,
      "stri": 7988,
      "bund": 7989,
      "dehydrogen": 7990,
      "lr": 7991,
      "hsp": 7992,
      "##anted": 7993,
      "sx": 7994,
      "##tc": 7995,
      "autoimmune": 7996,
      "orientation": 7997,
      "fasting": 7998,
      "##oprolol": 7999,
      "cip": 8000,
      "##ells": 8001,
      "vomiting": 8002,
      "exce": 8003,
      "malignancy": 8004,
      "percutaneous": 8005,
      "afib": 8006,
      "professional": 8007,
      "##phosph": 8008,
      "vehicle": 8009,
      "careg": 8010,
      "equil": 8011,
      "scal": 8012,
      "ago": 8013,
      "mach": 8014,
      "auc": 8015,
      "##ana": 8016,
      "ub": 8017,
      "participation": 8018,
      "examinations": 8019,
      "pca": 8020,
      "##ibrium": 8021,
      "toxin": 8022,
      "regardless": 8023,
      "tumours": 8024,
      "##arth": 8025,
      "sought": 8026,
      "afebrile": 8027,
      "bid": 8028,
      "##plc": 8029,
      "reversed": 8030,
      "lactic": 8031,
      "##tisol": 8032,
      "##acet": 8033,
      "implants": 8034,
      "span": 8035,
      "##ameth": 8036,
      "depressed": 8037,
      "valuable": 8038,
      "sensitiz": 8039,
      "utilized": 8040,
      "barriers": 8041,
      "guide": 8042,
      "plaque": 8043,
      "pu": 8044,
      "project": 8045,
      "##28": 8046,
      "allowing": 8047,
      "preterm": 8048,
      "draining": 8049,
      "vascul": 8050,
      "glycoprotein": 8051,
      "annual": 8052,
      "q4": 8053,
      "biopsies": 8054,
      "fifty": 8055,
      "obstructive": 8056,
      "traumatic": 8057,
      "feasibility": 8058,
      "greatly": 8059,
      "hbv": 8060,
      "headache": 8061,
      "##ury": 8062,
      "yielded": 8063,
      "clinicians": 8064,
      "##itated": 8065,
      "104": 8066,
      "##ensis": 8067,
      "##opol": 8068,
      "##oe": 8069,
      "div": 8070,
      "advantages": 8071,
      "##ynam": 8072,
      "##rie": 8073,
      "orb": 8074,
      "substantially": 8075,
      "scientific": 8076,
      "##26": 8077,
      "##entral": 8078,
      "##err": 8079,
      "bearing": 8080,
      "peritoneal": 8081,
      "epilepsy": 8082,
      "immunity": 8083,
      "distinguish": 8084,
      "symmetric": 8085,
      "remod": 8086,
      "scales": 8087,
      "undertaken": 8088,
      "databases": 8089,
      "contraind": 8090,
      "esophag": 8091,
      "ips": 8092,
      "motiv": 8093,
      "dox": 8094,
      "##ulder": 8095,
      "remission": 8096,
      "park": 8097,
      "tubes": 8098,
      "lost": 8099,
      "nl": 8100,
      "parental": 8101,
      "indicators": 8102,
      "##ounced": 8103,
      "c3": 8104,
      "hypothal": 8105,
      "metoprolol": 8106,
      "ldh": 8107,
      "educational": 8108,
      "coum": 8109,
      "pancreatitis": 8110,
      "assembly": 8111,
      "ards": 8112,
      "auditory": 8113,
      "incorporation": 8114,
      "coupling": 8115,
      "hypo": 8116,
      "conduct": 8117,
      "list": 8118,
      "##ifying": 8119,
      "viol": 8120,
      "mch": 8121,
      "mitochondria": 8122,
      "##tures": 8123,
      "participated": 8124,
      "representing": 8125,
      "shoulder": 8126,
      "integration": 8127,
      "##itin": 8128,
      "semi": 8129,
      "dh": 8130,
      "generalized": 8131,
      "thal": 8132,
      "exogenous": 8133,
      "rup": 8134,
      "interferon": 8135,
      "excit": 8136,
      "awake": 8137,
      "layers": 8138,
      "brad": 8139,
      "inpatient": 8140,
      "##oglobulin": 8141,
      "mapping": 8142,
      "pert": 8143,
      "preparations": 8144,
      "##omonas": 8145,
      "identi": 8146,
      "##alities": 8147,
      "estimation": 8148,
      "bind": 8149,
      "influences": 8150,
      "##ologist": 8151,
      "##oxic": 8152,
      "pod": 8153,
      "cytoplasmic": 8154,
      "income": 8155,
      "##ospor": 8156,
      "dressing": 8157,
      "malaria": 8158,
      "vic": 8159,
      "rash": 8160,
      "fungal": 8161,
      "films": 8162,
      "opacities": 8163,
      "mu": 8164,
      "dihyd": 8165,
      "limiting": 8166,
      "obvious": 8167,
      "jud": 8168,
      "acting": 8169,
      "protocols": 8170,
      "consensus": 8171,
      "fel": 8172,
      "verbal": 8173,
      "hrs": 8174,
      "phos": 8175,
      "config": 8176,
      "squamous": 8177,
      "carbohyd": 8178,
      "##ka": 8179,
      "##elihood": 8180,
      "teaching": 8181,
      "##ionic": 8182,
      "dark": 8183,
      "##90": 8184,
      "p4": 8185,
      "carcinomas": 8186,
      "spectral": 8187,
      "likelihood": 8188,
      "cig": 8189,
      "##acting": 8190,
      "regeneration": 8191,
      "##oll": 8192,
      "serial": 8193,
      "returned": 8194,
      "pronounced": 8195,
      "normally": 8196,
      "sizes": 8197,
      "positions": 8198,
      "noc": 8199,
      "silhou": 8200,
      "bedside": 8201,
      "##eted": 8202,
      "acceptable": 8203,
      "electrophoresis": 8204,
      "rbc": 8205,
      "cyan": 8206,
      "##aphragm": 8207,
      "classes": 8208,
      "insight": 8209,
      "bodies": 8210,
      "##tead": 8211,
      "analytical": 8212,
      "##ematic": 8213,
      "abundance": 8214,
      "loci": 8215,
      "observational": 8216,
      "permeability": 8217,
      "x1": 8218,
      "prospectively": 8219,
      "immunohistochemical": 8220,
      "2016": 8221,
      "##atidyl": 8222,
      "serot": 8223,
      "gut": 8224,
      "enlarged": 8225,
      "opioid": 8226,
      "allergic": 8227,
      "106": 8228,
      "image002": 8229,
      "##essions": 8230,
      "rabbits": 8231,
      "##opathic": 8232,
      "stere": 8233,
      "gy": 8234,
      "##lam": 8235,
      "##ilization": 8236,
      "chond": 8237,
      "vaginal": 8238,
      "macrophage": 8239,
      "2004": 8240,
      "##ping": 8241,
      "##uments": 8242,
      "dic": 8243,
      "anastom": 8244,
      "##uses": 8245,
      "osc": 8246,
      "encoun": 8247,
      "##oplastic": 8248,
      "recruit": 8249,
      "atyp": 8250,
      "scans": 8251,
      "##adin": 8252,
      "##k1": 8253,
      "##lab": 8254,
      "depletion": 8255,
      "questionnaires": 8256,
      "nurse": 8257,
      "##omers": 8258,
      "survivors": 8259,
      "entry": 8260,
      "intrav": 8261,
      "prevalent": 8262,
      "cumulative": 8263,
      "jpg": 8264,
      "society": 8265,
      "##ml": 8266,
      "confer": 8267,
      "weakness": 8268,
      "simulated": 8269,
      "##hd": 8270,
      "crp": 8271,
      "desc": 8272,
      "closure": 8273,
      "perfused": 8274,
      "eating": 8275,
      "testosterone": 8276,
      "neurot": 8277,
      "##idin": 8278,
      "precip": 8279,
      "##ophen": 8280,
      "uterine": 8281,
      "cool": 8282,
      "##choline": 8283,
      "##opausal": 8284,
      "precursor": 8285,
      "formal": 8286,
      "pink": 8287,
      "quantified": 8288,
      "cortisol": 8289,
      "chains": 8290,
      "worldwide": 8291,
      "retrie": 8292,
      "troponin": 8293,
      "##amycin": 8294,
      "##ayer": 8295,
      "triglycer": 8296,
      "principal": 8297,
      "lacking": 8298,
      "attack": 8299,
      "hx": 8300,
      "##enter": 8301,
      "##oli": 8302,
      "duoden": 8303,
      "whe": 8304,
      "cleavage": 8305,
      "brom": 8306,
      "histor": 8307,
      "##areness": 8308,
      "proges": 8309,
      "girls": 8310,
      "osm": 8311,
      "providers": 8312,
      "instead": 8313,
      "caffeine": 8314,
      "vo": 8315,
      "egfr": 8316,
      "##ote": 8317,
      "rb": 8318,
      "vesicles": 8319,
      "dehydrogenase": 8320,
      "neuros": 8321,
      "interestingly": 8322,
      "intraoperative": 8323,
      "option": 8324,
      "clean": 8325,
      "veins": 8326,
      "scaff": 8327,
      "asked": 8328,
      "prescrip": 8329,
      "existence": 8330,
      "lop": 8331,
      "cultiv": 8332,
      "ff": 8333,
      "##oming": 8334,
      "motif": 8335,
      "##ritic": 8336,
      "grafts": 8337,
      "resident": 8338,
      "screened": 8339,
      "subd": 8340,
      "ngt": 8341,
      "salmon": 8342,
      "phosphatase": 8343,
      "##mark": 8344,
      "supporting": 8345,
      "staphyl": 8346,
      "arab": 8347,
      "ester": 8348,
      "fc": 8349,
      "brown": 8350,
      "leaves": 8351,
      "##pan": 8352,
      "preced": 8353,
      "structured": 8354,
      "advances": 8355,
      "epidemiological": 8356,
      "assessments": 8357,
      "##iasis": 8358,
      "adaptive": 8359,
      "inducing": 8360,
      "transcripts": 8361,
      "awareness": 8362,
      "sham": 8363,
      "answ": 8364,
      "emerging": 8365,
      "diagnoses": 8366,
      "##27": 8367,
      "plasmid": 8368,
      "micr": 8369,
      "took": 8370,
      "extend": 8371,
      "adenocarcinoma": 8372,
      "feasible": 8373,
      "amyloid": 8374,
      "tx": 8375,
      "parts": 8376,
      "hippocampus": 8377,
      "phyt": 8378,
      "##timal": 8379,
      "options": 8380,
      "combinations": 8381,
      "operated": 8382,
      "##uity": 8383,
      "cardiopulmonary": 8384,
      "##asone": 8385,
      "##umab": 8386,
      "##esium": 8387,
      "solvent": 8388,
      "land": 8389,
      "update": 8390,
      "ocular": 8391,
      "circulation": 8392,
      "##ilic": 8393,
      "ventilator": 8394,
      "referral": 8395,
      "labeling": 8396,
      "ppi": 8397,
      "pylori": 8398,
      "##eses": 8399,
      "##rhythm": 8400,
      "mae": 8401,
      "midline": 8402,
      "biofil": 8403,
      "duc": 8404,
      "contro": 8405,
      "##80": 8406,
      "implemented": 8407,
      "##uled": 8408,
      "##atible": 8409,
      "covered": 8410,
      "brach": 8411,
      "ram": 8412,
      "diets": 8413,
      "warr": 8414,
      "tlr": 8415,
      "reconstruc": 8416,
      "inhibits": 8417,
      "largest": 8418,
      "##amental": 8419,
      "reinf": 8420,
      "deb": 8421,
      "requirement": 8422,
      "##apped": 8423,
      "flap": 8424,
      "calculations": 8425,
      "##ibration": 8426,
      "overload": 8427,
      "false": 8428,
      "stiff": 8429,
      "copper": 8430,
      "residue": 8431,
      "epit": 8432,
      "controvers": 8433,
      "environments": 8434,
      "professionals": 8435,
      "##astric": 8436,
      "mann": 8437,
      "ammon": 8438,
      "alz": 8439,
      "array": 8440,
      "intram": 8441,
      "infiltration": 8442,
      "overweight": 8443,
      "replet": 8444,
      "dimensions": 8445,
      "##adian": 8446,
      "quin": 8447,
      "septic": 8448,
      "subset": 8449,
      "pent": 8450,
      "guidance": 8451,
      "promoting": 8452,
      "alveolar": 8453,
      "faster": 8454,
      "uniform": 8455,
      "subunits": 8456,
      "dt": 8457,
      "overc": 8458,
      "##des": 8459,
      "detecting": 8460,
      "route": 8461,
      "##ocys": 8462,
      "practition": 8463,
      "cigar": 8464,
      "outer": 8465,
      "po4": 8466,
      "sud": 8467,
      "decisions": 8468,
      "artificial": 8469,
      "asa": 8470,
      "created": 8471,
      "fine": 8472,
      "extens": 8473,
      "homeostasis": 8474,
      "kidneys": 8475,
      "enhancing": 8476,
      "spent": 8477,
      "abol": 8478,
      "##ai": 8479,
      "##inson": 8480,
      "##ipine": 8481,
      "biology": 8482,
      "postoperatively": 8483,
      "rejection": 8484,
      "ras": 8485,
      "itself": 8486,
      "similarity": 8487,
      "##hrs": 8488,
      "effort": 8489,
      "arom": 8490,
      "minute": 8491,
      "##idase": 8492,
      "habit": 8493,
      "mess": 8494,
      "occupational": 8495,
      "masses": 8496,
      "yr": 8497,
      "##zyme": 8498,
      "aberr": 8499,
      "##heimer": 8500,
      "pren": 8501,
      "abundant": 8502,
      "enzymatic": 8503,
      "round": 8504,
      "intermittent": 8505,
      "##nat": 8506,
      "critically": 8507,
      "ald": 8508,
      "s2": 8509,
      "careful": 8510,
      "contributes": 8511,
      "preventing": 8512,
      "aid": 8513,
      "ascites": 8514,
      "closed": 8515,
      "consul": 8516,
      "raised": 8517,
      "##athetic": 8518,
      "substances": 8519,
      "wnl": 8520,
      "electrode": 8521,
      "fx": 8522,
      "amplification": 8523,
      "##rocard": 8524,
      "capillary": 8525,
      "steroids": 8526,
      "anomal": 8527,
      "atherosclerosis": 8528,
      "drip": 8529,
      "gent": 8530,
      "rule": 8531,
      "insights": 8532,
      "##vef": 8533,
      "indications": 8534,
      "virt": 8535,
      "compet": 8536,
      "classical": 8537,
      "clones": 8538,
      "thickening": 8539,
      "hippocampal": 8540,
      "greatest": 8541,
      "##ceptions": 8542,
      "responded": 8543,
      "##odil": 8544,
      "sediment": 8545,
      "##rought": 8546,
      "##icients": 8547,
      "corrected": 8548,
      "attitudes": 8549,
      "ot": 8550,
      "flag": 8551,
      "cholec": 8552,
      "attempts": 8553,
      "ath": 8554,
      "vanco": 8555,
      "quantification": 8556,
      "coefficients": 8557,
      "eps": 8558,
      "precise": 8559,
      "##iction": 8560,
      "##onuclear": 8561,
      "proven": 8562,
      "##uron": 8563,
      "rotation": 8564,
      "nin": 8565,
      "tooth": 8566,
      "oa": 8567,
      "##inter": 8568,
      "alzheimer": 8569,
      "pathogenic": 8570,
      "canal": 8571,
      "former": 8572,
      "##ofluores": 8573,
      "2003": 8574,
      "cytometry": 8575,
      "rac": 8576,
      "##flow": 8577,
      "vision": 8578,
      "\u00b0c": 8579,
      "protected": 8580,
      "003": 8581,
      "##22": 8582,
      "##ci": 8583,
      "member": 8584,
      "fore": 8585,
      "##ivariate": 8586,
      "timing": 8587,
      "crack": 8588,
      "##uncture": 8589,
      "creat": 8590,
      "##chem": 8591,
      "improves": 8592,
      "incident": 8593,
      "panel": 8594,
      "identity": 8595,
      "##ypt": 8596,
      "swallow": 8597,
      "changing": 8598,
      "protect": 8599,
      "aver": 8600,
      "##aceu": 8601,
      "translation": 8602,
      "dosage": 8603,
      "beam": 8604,
      "exact": 8605,
      "german": 8606,
      "refrac": 8607,
      "emphas": 8608,
      "visible": 8609,
      "digital": 8610,
      "supports": 8611,
      "perman": 8612,
      "sliding": 8613,
      "##mia": 8614,
      "resource": 8615,
      "##rane": 8616,
      "##otoxin": 8617,
      "##adily": 8618,
      "walking": 8619,
      "akt": 8620,
      "##ept": 8621,
      "##inical": 8622,
      "representative": 8623,
      "moving": 8624,
      "extubated": 8625,
      "saturation": 8626,
      "anaesth": 8627,
      "fundamental": 8628,
      "trained": 8629,
      "discharged": 8630,
      "prescribed": 8631,
      "pes": 8632,
      "##uscular": 8633,
      "northern": 8634,
      "idi": 8635,
      "immunod": 8636,
      "vertebr": 8637,
      "lopressor": 8638,
      "infarct": 8639,
      "##iplinary": 8640,
      "disapp": 8641,
      "synchron": 8642,
      "nodules": 8643,
      "108": 8644,
      "situation": 8645,
      "tac": 8646,
      "##dep": 8647,
      "##mod": 8648,
      "virul": 8649,
      "psychos": 8650,
      "antagonists": 8651,
      "dyspnea": 8652,
      "##ulties": 8653,
      "mask": 8654,
      "academic": 8655,
      "inactivation": 8656,
      "##va": 8657,
      "td": 8658,
      "june": 8659,
      "##lipid": 8660,
      "downreg": 8661,
      "represented": 8662,
      "##omat": 8663,
      "ankle": 8664,
      "infiltrate": 8665,
      "##uly": 8666,
      "##mented": 8667,
      "actual": 8668,
      "phenotypes": 8669,
      "arrhythm": 8670,
      "discovery": 8671,
      "magnesium": 8672,
      "unilateral": 8673,
      "##o3": 8674,
      "anatomical": 8675,
      "rank": 8676,
      "incompl": 8677,
      "2002": 8678,
      "favorable": 8679,
      "rub": 8680,
      "locations": 8681,
      "reductions": 8682,
      "##irub": 8683,
      "##ometrial": 8684,
      "science": 8685,
      "immunoglobulin": 8686,
      "tibial": 8687,
      "lvef": 8688,
      "##itect": 8689,
      "exists": 8690,
      "tension": 8691,
      "demonstrating": 8692,
      "arginine": 8693,
      "sessions": 8694,
      "##pread": 8695,
      "bf": 8696,
      "cutaneous": 8697,
      "ultim": 8698,
      "##ota": 8699,
      "wides": 8700,
      "informed": 8701,
      "silhouette": 8702,
      "consent": 8703,
      "goals": 8704,
      "widespread": 8705,
      "qol": 8706,
      "colle": 8707,
      "deter": 8708,
      "##licit": 8709,
      "degeneration": 8710,
      "##ograft": 8711,
      "demand": 8712,
      "x2": 8713,
      "aml": 8714,
      "usual": 8715,
      "##eptive": 8716,
      "##pro": 8717,
      "hplc": 8718,
      "participate": 8719,
      "cation": 8720,
      "egg": 8721,
      "atpase": 8722,
      "##ughter": 8723,
      "psv": 8724,
      "enriched": 8725,
      "gallbl": 8726,
      "##era": 8727,
      "glands": 8728,
      "##aceutical": 8729,
      "flux": 8730,
      "##graph": 8731,
      "race": 8732,
      "quick": 8733,
      "ent": 8734,
      "blocker": 8735,
      "preserved": 8736,
      "immuno": 8737,
      "ensure": 8738,
      "abx": 8739,
      "cvp": 8740,
      "adipose": 8741,
      "japanese": 8742,
      "##yroidism": 8743,
      "resol": 8744,
      "##osome": 8745,
      "uses": 8746,
      "preferred": 8747,
      "##iae": 8748,
      "incubated": 8749,
      "difficulties": 8750,
      "contours": 8751,
      "surgeons": 8752,
      "quadr": 8753,
      "##\u00b0c": 8754,
      "obl": 8755,
      "sixty": 8756,
      "namely": 8757,
      "rsbi": 8758,
      "hydroxyl": 8759,
      "elicited": 8760,
      "comorbid": 8761,
      "evolutionary": 8762,
      "coumadin": 8763,
      "stimulating": 8764,
      "contraindications": 8765,
      "##ozygous": 8766,
      "brid": 8767,
      "scen": 8768,
      "nos": 8769,
      "##quin": 8770,
      "collab": 8771,
      "orally": 8772,
      "alleles": 8773,
      "parasite": 8774,
      "modifications": 8775,
      "regimens": 8776,
      "##ibular": 8777,
      "homogene": 8778,
      "##vas": 8779,
      "highlight": 8780,
      "progenitor": 8781,
      "attempted": 8782,
      "terti": 8783,
      "quantify": 8784,
      "coated": 8785,
      "leuc": 8786,
      "##gent": 8787,
      "intes": 8788,
      "##65": 8789,
      "neigh": 8790,
      "reading": 8791,
      "absorb": 8792,
      "drawn": 8793,
      "reviews": 8794,
      "carriers": 8795,
      "alkaline": 8796,
      "satisfactory": 8797,
      "##openia": 8798,
      "neoplasm": 8799,
      "dw": 8800,
      "gallbladder": 8801,
      "##ded": 8802,
      "##ietic": 8803,
      "progesterone": 8804,
      "wire": 8805,
      "ubiqu": 8806,
      "researchers": 8807,
      "newborn": 8808,
      "ascending": 8809,
      "##using": 8810,
      "parkinson": 8811,
      "ones": 8812,
      "recruitment": 8813,
      "obst": 8814,
      "aqu": 8815,
      "cocaine": 8816,
      "potenti": 8817,
      "slic": 8818,
      "##oyl": 8819,
      "challenging": 8820,
      "tertiary": 8821,
      "construct": 8822,
      "instructions": 8823,
      "million": 8824,
      "osteopor": 8825,
      "tree": 8826,
      "##off": 8827,
      "##ocortic": 8828,
      "subtypes": 8829,
      "inhibiting": 8830,
      "##opril": 8831,
      "eligible": 8832,
      "isot": 8833,
      "offers": 8834,
      "postn": 8835,
      "indicator": 8836,
      "##oidal": 8837,
      "##p1": 8838,
      "contamination": 8839,
      "##yph": 8840,
      "plans": 8841,
      "##atation": 8842,
      "107": 8843,
      "statin": 8844,
      "probable": 8845,
      "nitr": 8846,
      "schem": 8847,
      "2001": 8848,
      "postm": 8849,
      "deterior": 8850,
      "boys": 8851,
      "kb": 8852,
      "##ocular": 8853,
      "performing": 8854,
      "determinants": 8855,
      "degenerative": 8856,
      "elimination": 8857,
      "fasc": 8858,
      "equilibrium": 8859,
      "##rocyte": 8860,
      "datas": 8861,
      "supply": 8862,
      "##isph": 8863,
      "hernia": 8864,
      "onto": 8865,
      "clamp": 8866,
      "consequently": 8867,
      "##aker": 8868,
      "##noon": 8869,
      "##xin": 8870,
      "##clc": 8871,
      "accurately": 8872,
      "conflic": 8873,
      "endo": 8874,
      "##iration": 8875,
      "too": 8876,
      "complexity": 8877,
      "hapl": 8878,
      "##monic": 8879,
      "##pecific": 8880,
      "nsr": 8881,
      "atypical": 8882,
      "discrimination": 8883,
      "biosynthesis": 8884,
      "##seous": 8885,
      "hormones": 8886,
      "weekly": 8887,
      "hydrolysis": 8888,
      "##uits": 8889,
      "vulner": 8890,
      "##part": 8891,
      "optimized": 8892,
      "standards": 8893,
      "mrsa": 8894,
      "##fold": 8895,
      "##yster": 8896,
      "attachment": 8897,
      "spells": 8898,
      "gla": 8899,
      "tight": 8900,
      "refractory": 8901,
      "##carb": 8902,
      "spermat": 8903,
      "square": 8904,
      "sugar": 8905,
      "expressions": 8906,
      "couns": 8907,
      "postnatal": 8908,
      "instability": 8909,
      "extubation": 8910,
      "elucidate": 8911,
      "synerg": 8912,
      "##21": 8913,
      "colony": 8914,
      "##ocellular": 8915,
      "mos": 8916,
      "##actant": 8917,
      "etoh": 8918,
      "agonists": 8919,
      "neurode": 8920,
      "##max": 8921,
      "phenotypic": 8922,
      "estradiol": 8923,
      "stronger": 8924,
      "##elin": 8925,
      "perr": 8926,
      "##otides": 8927,
      "bands": 8928,
      "aspect": 8929,
      "urea": 8930,
      "bib": 8931,
      "embryo": 8932,
      "tn": 8933,
      "minimally": 8934,
      "nmol": 8935,
      "fluct": 8936,
      "partners": 8937,
      "##sin": 8938,
      "uk": 8939,
      "cystic": 8940,
      "makes": 8941,
      "psa": 8942,
      "country": 8943,
      "afternoon": 8944,
      "constitu": 8945,
      "##itic": 8946,
      "ekg": 8947,
      "maps": 8948,
      "microscopic": 8949,
      "dosing": 8950,
      "sag": 8951,
      "##arp": 8952,
      "photo": 8953,
      "comprom": 8954,
      "colitis": 8955,
      "tag": 8956,
      "##ocon": 8957,
      "severely": 8958,
      "##osyst": 8959,
      "fri": 8960,
      "look": 8961,
      "##agic": 8962,
      "evening": 8963,
      "deficit": 8964,
      "ativ": 8965,
      "##2a": 8966,
      "web": 8967,
      "suppress": 8968,
      "consists": 8969,
      "emerged": 8970,
      "excision": 8971,
      "adolescent": 8972,
      "cov": 8973,
      "##uctase": 8974,
      "proportional": 8975,
      "gonad": 8976,
      "stained": 8977,
      "perspective": 8978,
      "histologic": 8979,
      "recons": 8980,
      "sequential": 8981,
      "neutrophils": 8982,
      "##oxygen": 8983,
      "managed": 8984,
[...]
